{
  "<s>": 0,
  "<pad>": 1,
  "</s>": 2,
  "<unk>": 3,
  "\u2581the": 4,
  "s": 5,
  "\u2581and": 6,
  "ed": 7,
  "\u2581of": 8,
  "\u2581to": 9,
  "\u2581a": 10,
  "\u2581in": 11,
  "\u2581i": 12,
  "\u2581he": 13,
  "\u2581that": 14,
  "ly": 15,
  "\u2581it": 16,
  "\u2581was": 17,
  "ing": 18,
  "'": 19,
  "\u2581his": 20,
  "\u2581with": 21,
  "\u2581you": 22,
  "\u2581on": 23,
  "\u2581for": 24,
  "y": 25,
  "\u2581her": 26,
  "\u2581had": 27,
  "\u2581be": 28,
  "\u2581as": 29,
  "\u2581is": 30,
  "\u2581but": 31,
  "\u2581not": 32,
  "\u2581she": 33,
  "e": 34,
  "t": 35,
  "d": 36,
  "\u2581at": 37,
  "\u2581him": 38,
  "\u2581my": 39,
  "\u2581have": 40,
  "\u2581by": 41,
  "\u2581they": 42,
  "\u2581all": 43,
  "\u2581this": 44,
  "\u2581which": 45,
  "\u2581so": 46,
  "\u2581said": 47,
  "\u2581from": 48,
  "\u2581me": 49,
  "\u2581one": 50,
  "\u2581were": 51,
  "\u2581we": 52,
  "n": 53,
  "\u2581there": 54,
  "\u2581no": 55,
  "\u2581when": 56,
  "\u2581or": 57,
  "\u2581who": 58,
  "\u2581an": 59,
  "\u2581are": 60,
  "\u2581their": 61,
  "\u2581would": 62,
  "\u2581if": 63,
  "\u2581them": 64,
  "\u2581what": 65,
  "er": 66,
  "\u2581will": 67,
  "\u2581out": 68,
  "\u2581been": 69,
  "\u2581up": 70,
  "\u2581do": 71,
  "\u2581man": 72,
  "\u2581then": 73,
  "\u2581more": 74,
  "\u2581your": 75,
  "\u2581could": 76,
  "\u2581into": 77,
  "\u2581now": 78,
  "\u2581some": 79,
  "\u2581very": 80,
  "\u2581like": 81,
  "\u2581other": 82,
  "\u2581little": 83,
  "\u2581time": 84,
  "\u2581know": 85,
  "\u2581how": 86,
  "\u2581about": 87,
  "\u2581can": 88,
  "\u2581": 89,
  "\u2581than": 90,
  "\u2581did": 91,
  "\u2581great": 92,
  "\u2581again": 93,
  "\u2581upon": 94,
  "\u2581has": 95,
  "\u2581any": 96,
  "\u2581well": 97,
  "\u2581over": 98,
  "\u2581see": 99,
  "\u2581two": 100,
  "st": 101,
  "\u2581our": 102,
  "\u2581good": 103,
  "\u2581look": 104,
  "\u2581down": 105,
  "\u2581before": 106,
  "self": 107,
  "\u2581made": 108,
  "\u2581day": 109,
  "\u2581go": 110,
  "r": 111,
  "\u2581after": 112,
  "\u2581should": 113,
  "\u2581long": 114,
  "ce": 115,
  "\u2581old": 116,
  "\u2581never": 117,
  "\u2581come": 118,
  "\u2581must": 119,
  "\u2581such": 120,
  "\u2581came": 121,
  "\u2581take": 122,
  "es": 123,
  "\u2581where": 124,
  "\u2581us": 125,
  "\u2581much": 126,
  "\u2581these": 127,
  "m": 128,
  "\u2581mister": 129,
  "\u2581may": 130,
  "\u2581way": 131,
  "\u2581thought": 132,
  "\u2581first": 133,
  "\u2581back": 134,
  "\u2581say": 135,
  "\u2581went": 136,
  "\u2581himself": 137,
  "\u2581here": 138,
  "\u2581men": 139,
  "\u2581own": 140,
  "ies": 141,
  "\u2581think": 142,
  "\u2581might": 143,
  "\u2581give": 144,
  "\u2581ask": 145,
  "\u2581am": 146,
  "\u2581seem": 147,
  "ness": 148,
  "\u2581just": 149,
  "\u2581through": 150,
  "\u2581place": 151,
  "\u2581even": 152,
  "\u2581make": 153,
  "\u2581away": 154,
  "\u2581too": 155,
  "ll": 156,
  "\u2581life": 157,
  "\u2581its": 158,
  "\u2581without": 159,
  "\u2581most": 160,
  "\u2581hand": 161,
  "\u2581don": 162,
  "\u2581every": 163,
  "\u2581thos": 164,
  "in": 165,
  "\u2581eyes": 166,
  "\u2581shall": 167,
  "\u2581under": 168,
  "\u2581still": 169,
  "\u2581last": 170,
  "\u2581head": 171,
  "\u2581nothing": 172,
  "\u2581house": 173,
  "\u2581night": 174,
  "\u2581many": 175,
  "\u2581while": 176,
  "\u2581let": 177,
  "\u2581call": 178,
  "\u2581being": 179,
  "\u2581get": 180,
  "\u2581people": 181,
  "\u2581off": 182,
  "\u2581found": 183,
  "\u2581face": 184,
  "\u2581saw": 185,
  "\u2581tell": 186,
  "\u2581three": 187,
  "\u2581room": 188,
  "\u2581yet": 189,
  "\u2581love": 190,
  "\u2581same": 191,
  "\u2581father": 192,
  "re": 193,
  "\u2581another": 194,
  "\u2581though": 195,
  "\u2581want": 196,
  "\u2581right": 197,
  "\u2581put": 198,
  "\u2581young": 199,
  "\u2581took": 200,
  "\u2581part": 201,
  "\u2581ever": 202,
  "est": 203,
  "\u2581king": 204,
  "\u2581new": 205,
  "\u2581missus": 206,
  "al": 207,
  "\u2581mind": 208,
  "\u2581work": 209,
  "\u2581un": 210,
  "\u2581left": 211,
  "\u2581al": 212,
  "\u2581sir": 213,
  "\u2581near": 214,
  "a": 215,
  "\u2581mean": 216,
  "\u2581world": 217,
  "\u2581moment": 218,
  "\u2581things": 219,
  "\u2581thing": 220,
  "\u2581why": 221,
  "\u2581alway": 222,
  "\u2581light": 223,
  "\u2581mother": 224,
  "\u2581hear": 225,
  "ion": 226,
  "\u2581heart": 227,
  "\u2581soon": 228,
  "en": 229,
  "\u2581answer": 230,
  "\u2581home": 231,
  "\u2581something": 232,
  "\u2581girl": 233,
  "\u2581far": 234,
  "cause": 235,
  "ity": 236,
  "\u2581told": 237,
  "\u2581open": 238,
  "\u2581yes": 239,
  "\u2581door": 240,
  "on": 241,
  "\u2581got": 242,
  "\u2581going": 243,
  "able": 244,
  "ard": 245,
  "\u2581woman": 246,
  "ever": 247,
  "\u2581water": 248,
  "\u2581find": 249,
  "\u2581knew": 250,
  "\u2581each": 251,
  "\u2581follow": 252,
  "\u2581side": 253,
  "\u2581name": 254,
  "\u2581o": 255,
  "o": 256,
  "\u2581high": 257,
  "\u2581certain": 258,
  "\u2581oh": 259,
  "\u2581miss": 260,
  "\u2581quite": 261,
  "ve": 262,
  "\u2581real": 263,
  "p": 264,
  "\u2581few": 265,
  "\u2581years": 266,
  "\u2581better": 267,
  "\u2581half": 268,
  "less": 269,
  "\u2581done": 270,
  "\u2581present": 271,
  "\u2581return": 272,
  "\u2581end": 273,
  "\u2581pass": 274,
  "\u2581began": 275,
  "\u2581hard": 276,
  "\u2581god": 277,
  "also": 278,
  "\u2581having": 279,
  "\u2581enough": 280,
  "le": 281,
  "\u2581seen": 282,
  "\u2581white": 283,
  "\u2581hour": 284,
  "\u2581course": 285,
  "\u2581voice": 286,
  "\u2581lady": 287,
  "\u2581whole": 288,
  "\u2581set": 289,
  "\u2581both": 290,
  "\u2581gave": 291,
  "gether": 292,
  "\u2581kind": 293,
  "\u2581poor": 294,
  "\u2581turned": 295,
  "\u2581dear": 296,
  "us": 297,
  "g": 298,
  "\u2581morning": 299,
  "\u2581between": 300,
  "\u2581among": 301,
  "\u2581sure": 302,
  "\u2581order": 303,
  "\u2581wish": 304,
  "\u2581matter": 305,
  "\u2581close": 306,
  "\u2581believe": 307,
  "\u2581toward": 308,
  "\u2581small": 309,
  "\u2581speak": 310,
  "\u2581whom": 311,
  "\u2581friend": 312,
  "\u2581nor": 313,
  "\u2581felt": 314,
  "\u2581hands": 315,
  "\u2581full": 316,
  "se": 317,
  "\u2581cri": 318,
  "\u2581stood": 319,
  "\u2581hundred": 320,
  "ers": 321,
  "\u2581round": 322,
  "\u2581keep": 323,
  "\u2581large": 324,
  "\u2581leave": 325,
  "\u2581repli": 326,
  "l": 327,
  "\u2581perhaps": 328,
  "\u2581words": 329,
  "\u2581sudden": 330,
  "\u2581boy": 331,
  "\u2581four": 332,
  "\u2581anything": 333,
  "\u2581till": 334,
  "b": 335,
  "\u2581form": 336,
  "\u2581until": 337,
  "\u2581hope": 338,
  "ation": 339,
  "\u2581does": 340,
  "\u2581next": 341,
  "c": 342,
  "\u2581rest": 343,
  "\u2581power": 344,
  "\u2581brought": 345,
  "\u2581since": 346,
  "\u2581wait": 347,
  "\u2581black": 348,
  "\u2581lay": 349,
  "\u2581word": 350,
  "\u2581almo": 351,
  "\u2581country": 352,
  "\u2581looking": 353,
  "\u2581general": 354,
  "\u2581indeed": 355,
  "\u2581sea": 356,
  "\u2581days": 357,
  "\u2581tree": 358,
  "\u2581help": 359,
  "\u2581rather": 360,
  "\u2581air": 361,
  "\u2581sat": 362,
  "\u2581appear": 363,
  "\u2581feet": 364,
  "\u2581de": 365,
  "\u2581five": 366,
  "\u2581question": 367,
  "\u2581walk": 368,
  "\u2581gone": 369,
  "\u2581reach": 370,
  "\u2581wife": 371,
  "\u2581fire": 372,
  "\u2581best": 373,
  "\u2581death": 374,
  "\u2581live": 375,
  "th": 376,
  "\u2581person": 377,
  "ic": 378,
  "\u2581thu": 379,
  "\u2581case": 380,
  "\u2581canno": 381,
  "\u2581fall": 382,
  "\u2581along": 383,
  "\u2581themselves": 384,
  "\u2581fact": 385,
  "\u2581child": 386,
  "\u2581lord": 387,
  "\u2581letter": 388,
  "\u2581true": 389,
  "\u2581thousand": 390,
  "\u2581money": 391,
  "k": 392,
  "\u2581behind": 393,
  "\u2581nature": 394,
  "\u2581children": 395,
  "\u2581doctor": 396,
  "\u2581sound": 397,
  "\u2581twenty": 398,
  "\u2581play": 399,
  "ther": 400,
  "\u2581remain": 401,
  "\u2581thou": 402,
  "\u2581care": 403,
  "\u2581t": 404,
  "ment": 405,
  "\u2581show": 406,
  "\u2581less": 407,
  "\u2581reason": 408,
  "lone": 409,
  "\u2581master": 410,
  "\u2581state": 411,
  "\u2581enter": 412,
  "\u2581strong": 413,
  "\u2581short": 414,
  "\u2581window": 415,
  "u": 416,
  "\u2581happen": 417,
  "\u2581talk": 418,
  "\u2581spoke": 419,
  "or": 420,
  "is": 421,
  "\u2581s": 422,
  "\u2581prince": 423,
  "\u2581land": 424,
  "\u2581red": 425,
  "\u2581fell": 426,
  "\u2581clear": 427,
  "ry": 428,
  "\u2581dur": 429,
  "refore": 430,
  "\u2581body": 431,
  "\u2581possibl": 432,
  "\u2581second": 433,
  "\u2581sun": 434,
  "\u2581often": 435,
  "an": 436,
  "\u2581dead": 437,
  "\u2581bring": 438,
  "\u2581beside": 439,
  "\u2581ground": 440,
  "\u2581horse": 441,
  "\u2581remember": 442,
  "\u2581point": 443,
  "\u2581son": 444,
  "\u2581table": 445,
  "\u2581deep": 446,
  "\u2581earth": 447,
  "\u2581sent": 448,
  "\u2581whe": 449,
  "\u2581need": 450,
  "\u2581try": 451,
  "\u2581smile": 452,
  "\u2581use": 453,
  "\u2581ten": 454,
  "\u2581dark": 455,
  "\u2581coming": 456,
  "\u2581war": 457,
  "\u2581everything": 458,
  "\u2581above": 459,
  "\u2581feel": 460,
  "\u2581add": 461,
  "\u2581beautiful": 462,
  "ready": 463,
  "\u2581evening": 464,
  "\u2581least": 465,
  "\u2581soul": 466,
  "\u2581los": 467,
  "man": 468,
  "\u2581read": 469,
  "\u2581around": 470,
  "\u2581feeling": 471,
  "\u2581re": 472,
  "\u2581street": 473,
  "\u2581rose": 474,
  "\u2581laugh": 475,
  "\u2581fear": 476,
  "\u2581captain": 477,
  "\u2581sort": 478,
  "\u2581women": 479,
  "\u2581turn": 480,
  "\u2581line": 481,
  "\u2581six": 482,
  "\u2581brother": 483,
  "\u2581held": 484,
  "\u2581else": 485,
  "\u2581quick": 486,
  "\u2581strange": 487,
  "\u2581bed": 488,
  "\u2581manner": 489,
  "\u2581fine": 490,
  "\u2581d": 491,
  "came": 492,
  "\u2581either": 493,
  "\u2581doubt": 494,
  "\u2581sight": 495,
  "i": 496,
  "ton": 497,
  "\u2581fair": 498,
  "\u2581sleep": 499,
  "kept": 500,
  "\u2581arm": 501,
  "\u2581hair": 502,
  "\u2581making": 503,
  "\u2581year": 504,
  "\u2581friends": 505,
  "\u2581sometime": 506,
  "\u2581dress": 507,
  "\u2581daughter": 508,
  "\u2581sense": 509,
  "\u2581city": 510,
  "\u2581used": 511,
  "\u2581ran": 512,
  "\u2581ear": 513,
  "\u2581bad": 514,
  "w": 515,
  "\u2581become": 516,
  "\u2581watch": 517,
  "\u2581spirit": 518,
  "ous": 519,
  "\u2581cold": 520,
  "\u2581listen": 521,
  "\u2581ready": 522,
  "\u2581won": 523,
  "\u2581thy": 524,
  "\u2581consider": 525,
  "\u2581business": 526,
  "\u2581idea": 527,
  "\u2581subject": 528,
  "\u2581big": 529,
  "\u2581law": 530,
  "\u2581perfect": 531,
  "\u2581town": 532,
  "\u2581family": 533,
  "\u2581glad": 534,
  "\u2581interest": 535,
  "\u2581didn": 536,
  "\u2581several": 537,
  "\u2581understand": 538,
  "\u2581kill": 539,
  "\u2581change": 540,
  "\u2581different": 541,
  "\u2581run": 542,
  "\u2581start": 543,
  "\u2581hold": 544,
  "\u2581sister": 545,
  "\u2581truth": 546,
  "\u2581natural": 547,
  "\u2581di": 548,
  "\u2581quiet": 549,
  "\u2581able": 550,
  "li": 551,
  "\u2581human": 552,
  "\u2581wonder": 553,
  "\u2581arms": 554,
  "\u2581blood": 555,
  "h": 556,
  "\u2581story": 557,
  "\u2581says": 558,
  "\u2581happ": 559,
  "el": 560,
  "\u2581count": 561,
  "\u2581eye": 562,
  "\u2581difficult": 563,
  "it": 564,
  "f": 565,
  "\u2581cause": 566,
  "\u2581carri": 567,
  "\u2581number": 568,
  "\u2581road": 569,
  "\u2581piece": 570,
  "\u2581suppose": 571,
  "ten": 572,
  "\u2581continu": 573,
  "ng": 574,
  "\u2581low": 575,
  "\u2581late": 576,
  "\u2581e": 577,
  "\u2581mere": 578,
  "\u2581green": 579,
  "\u2581husband": 580,
  "\u2581stone": 581,
  "\u2581acros": 582,
  "ish": 583,
  "\u2581river": 584,
  "\u2581past": 585,
  "\u2581slow": 586,
  "\u2581tri": 587,
  "\u2581taking": 588,
  "\u2581regard": 589,
  "\u2581cut": 590,
  "\u2581seven": 591,
  "\u2581act": 592,
  "\u2581trouble": 593,
  "\u2581church": 594,
  "\u2581free": 595,
  "\u2581eat": 596,
  "\u2581met": 597,
  "\u2581pretty": 598,
  "ie": 599,
  "\u2581wind": 600,
  "\u2581john": 601,
  "\u2581book": 602,
  "\u2581week": 603,
  "\u2581save": 604,
  "\u2581allow": 605,
  "\u2581paper": 606,
  "\u2581common": 607,
  "\u2581wood": 608,
  "\u2581foot": 609,
  "\u2581times": 610,
  "ful": 611,
  "\u2581fellow": 612,
  "\u2581month": 613,
  "\u2581object": 614,
  "\u2581soft": 615,
  "\u2581surprise": 616,
  "\u2581cover": 617,
  "ch": 618,
  "\u2581gold": 619,
  "\u2581saying": 620,
  "\u2581sweet": 621,
  "\u2581blue": 622,
  "z": 623,
  "\u2581age": 624,
  "\u2581wild": 625,
  "\u2581usual": 626,
  "\u2581particular": 627,
  "\u2581account": 628,
  "\u2581ought": 629,
  "\u2581throw": 630,
  "\u2581stay": 631,
  "ar": 632,
  "\u2581art": 633,
  "ro": 634,
  "\u2581mov": 635,
  "\u2581flower": 636,
  "\u2581cross": 637,
  "ra": 638,
  "\u2581purpose": 639,
  "\u2581heaven": 640,
  "\u2581seat": 641,
  "\u2581touch": 642,
  "ia": 643,
  "\u2581school": 644,
  "\u2581bear": 645,
  "though": 646,
  "\u2581bright": 647,
  "\u2581chance": 648,
  "ter": 649,
  "il": 650,
  "ur": 651,
  "\u2581garden": 652,
  "\u2581neither": 653,
  "\u2581uncle": 654,
  "\u2581die": 655,
  "\u2581princess": 656,
  "na": 657,
  "\u2581stopp": 658,
  "men": 659,
  "\u2581immediate": 660,
  "stead": 661,
  "\u2581plain": 662,
  "\u2581effect": 663,
  "\u2581character": 664,
  "\u2581visit": 665,
  "den": 666,
  "\u2581pleasure": 667,
  "\u2581car": 668,
  "ive": 669,
  "\u2581further": 670,
  "\u2581dream": 671,
  "\u2581ship": 672,
  "\u2581none": 673,
  "\u2581instant": 674,
  "\u2581worth": 675,
  "\u2581w": 676,
  "\u2581forward": 677,
  "\u2581draw": 678,
  "\u2581co": 679,
  "\u2581queen": 680,
  "\u2581except": 681,
  "\u2581meet": 682,
  "\u2581chief": 683,
  "\u2581eighteen": 684,
  "\u2581direct": 685,
  "\u2581later": 686,
  "\u2581animal": 687,
  "\u2581court": 688,
  "\u2581respect": 689,
  "\u2581grow": 690,
  "\u2581ye": 691,
  "\u2581force": 692,
  "\u2581la": 693,
  "ty": 694,
  "\u2581stand": 695,
  "\u2581leg": 696,
  "\u2581discover": 697,
  "\u2581offer": 698,
  "yond": 699,
  "\u2581living": 700,
  "\u2581exclaim": 701,
  "\u2581secret": 702,
  "\u2581front": 703,
  "\u2581condition": 704,
  "\u2581chair": 705,
  "\u2581cry": 706,
  "\u2581mine": 707,
  "x": 708,
  "\u2581wall": 709,
  "\u2581sign": 710,
  "\u2581public": 711,
  "\u2581received": 712,
  "\u2581gentleman": 713,
  "\u2581entire": 714,
  "ling": 715,
  "ath": 716,
  "\u2581tone": 717,
  "\u2581laid": 718,
  "\u2581pay": 719,
  "\u2581hall": 720,
  "\u2581send": 721,
  "\u2581shoulder": 722,
  "\u2581mouth": 723,
  "\u2581deal": 724,
  "\u2581party": 725,
  "\u2581according": 726,
  "\u2581silence": 727,
  "\u2581rich": 728,
  "fraid": 729,
  "\u2581english": 730,
  "\u2581figure": 731,
  "\u2581ah": 732,
  "\u2581mary": 733,
  "\u2581england": 734,
  "\u2581doing": 735,
  "low": 736,
  "\u2581necessar": 737,
  "ant": 738,
  "\u2581hat": 739,
  "\u2581led": 740,
  "\u2581equal": 741,
  "\u2581service": 742,
  "\u2581aunt": 743,
  "\u2581view": 744,
  "\u2581lip": 745,
  "as": 746,
  "\u2581minutes": 747,
  "ri": 748,
  "\u2581please": 749,
  "\u2581star": 750,
  "\u2581bit": 751,
  "\u2581complete": 752,
  "\u2581drew": 753,
  "\u2581cap": 754,
  "\u2581warm": 755,
  "\u2581eight": 756,
  "\u2581miles": 757,
  "\u2581position": 758,
  "\u2581bow": 759,
  "\u2581length": 760,
  "\u2581remark": 761,
  "um": 762,
  "\u2581attention": 763,
  "\u2581heavy": 764,
  "\u2581top": 765,
  "\u2581happi": 766,
  "\u2581standing": 767,
  "\u2581thinking": 768,
  "ily": 769,
  "\u2581spring": 770,
  "\u2581caugh": 771,
  "\u2581ill": 772,
  "\u2581learn": 773,
  "ne": 774,
  "\u2581dog": 775,
  "\u2581grew": 776,
  "\u2581opinion": 777,
  "age": 778,
  "\u2581finger": 779,
  "\u2581creature": 780,
  "\u2581probabl": 781,
  "\u2581forth": 782,
  "ine": 783,
  "\u2581island": 784,
  "\u2581self": 785,
  "\u2581occasion": 786,
  "\u2581ago": 787,
  "\u2581third": 788,
  "ance": 789,
  "\u2581dinner": 790,
  "\u2581sharp": 791,
  "ma": 792,
  "\u2581beauty": 793,
  "\u2581con": 794,
  "\u2581approach": 795,
  "\u2581silent": 796,
  "am": 797,
  "\u2581fift": 798,
  "\u2581sitting": 799,
  "\u2581wide": 800,
  "\u2581thirty": 801,
  "\u2581break": 802,
  "\u2581explain": 803,
  "\u2581glance": 804,
  "\u2581command": 805,
  "\u2581seeing": 806,
  "\u2581action": 807,
  "\u2581sad": 808,
  "\u2581ma": 809,
  "\u2581thank": 810,
  "\u2581experience": 811,
  "\u2581scarce": 812,
  "\u2581struck": 813,
  "\u2581safe": 814,
  "\u2581distance": 815,
  "\u2581wrong": 816,
  "\u2581knowledge": 817,
  "\u2581final": 818,
  "to": 819,
  "\u2581gett": 820,
  "\u2581sing": 821,
  "\u2581joy": 822,
  "\u2581afterward": 823,
  "\u2581attempt": 824,
  "ck": 825,
  "\u2581whatever": 826,
  "\u2581boat": 827,
  "\u2581government": 828,
  "v": 829,
  "\u2581sit": 830,
  "\u2581crowd": 831,
  "\u2581train": 832,
  "\u2581direction": 833,
  "\u2581loved": 834,
  "\u2581slight": 835,
  "\u2581desire": 836,
  "\u2581evident": 837,
  "\u2581floor": 838,
  "land": 839,
  "\u2581utter": 840,
  "\u2581company": 841,
  "la": 842,
  "\u2581exact": 843,
  "\u2581shadow": 844,
  "\u2581m": 845,
  "\u2581drink": 846,
  "co": 847,
  "\u2581careful": 848,
  "\u2581danger": 849,
  "\u2581snow": 850,
  "\u2581rock": 851,
  "\u2581saint": 852,
  "\u2581palace": 853,
  "\u2581glass": 854,
  "\u2581result": 855,
  "\u2581forest": 856,
  "\u2581appearance": 857,
  "\u2581grave": 858,
  "\u2581tears": 859,
  "\u2581promise": 860,
  "led": 861,
  "\u2581forgot": 862,
  "\u2581london": 863,
  "\u2581brown": 864,
  "\u2581se": 865,
  "\u2581battle": 866,
  "\u2581affair": 867,
  "\u2581bell": 868,
  "\u2581step": 869,
  "lo": 870,
  "ate": 871,
  "\u2581fail": 872,
  "\u2581margaret": 873,
  "\u2581food": 874,
  "\u2581express": 875,
  "\u2581filled": 876,
  "\u2581anne": 877,
  "\u2581bound": 878,
  "\u2581strength": 879,
  "\u2581pleasant": 880,
  "\u2581straight": 881,
  "\u2581expression": 882,
  "\u2581pocket": 883,
  "\u2581fast": 884,
  "\u2581circumstance": 885,
  "ical": 886,
  "\u2581fresh": 887,
  "\u2581cloud": 888,
  "\u2581officer": 889,
  "\u2581broken": 890,
  "\u2581tom": 891,
  "\u2581hid": 892,
  "\u2581corner": 893,
  "\u2581easy": 894,
  "\u2581runn": 895,
  "\u2581fight": 896,
  "\u2581accept": 897,
  "\u2581wise": 898,
  "\u2581giv": 899,
  "\u2581office": 900,
  "\u2581hot": 901,
  "\u2581arriv": 902,
  "\u2581french": 903,
  "\u2581pale": 904,
  "\u2581south": 905,
  "\u2581liv": 906,
  "\u2581observ": 907,
  "\u2581ho": 908,
  "\u2581drive": 909,
  "\u2581impossibl": 910,
  "ary": 911,
  "\u2581conversation": 912,
  "\u2581scene": 913,
  "\u2581stop": 914,
  "\u2581outside": 915,
  "\u2581society": 916,
  "ul": 917,
  "\u2581cat": 918,
  "\u2581effort": 919,
  "\u2581g": 920,
  "\u2581indian": 921,
  "\u2581fortune": 922,
  "\u2581proper": 923,
  "\u2581nine": 924,
  "\u2581boys": 925,
  "\u2581single": 926,
  "\u2581write": 927,
  "\u2581simple": 928,
  "\u2581talking": 929,
  "\u2581em": 930,
  "\u2581demand": 931,
  "\u2581lad": 932,
  "\u2581spot": 933,
  "\u2581begin": 934,
  "\u2581peace": 935,
  "\u2581sky": 936,
  "\u2581join": 937,
  "\u2581wonderful": 938,
  "\u2581escape": 939,
  "\u2581mention": 940,
  "\u2581box": 941,
  "\u2581possess": 942,
  "\u2581grace": 943,
  "\u2581marri": 944,
  "\u2581wound": 945,
  "\u2581chapter": 946,
  "\u2581army": 947,
  "\u2581finish": 948,
  "\u2581turning": 949,
  "\u2581afternoon": 950,
  "\u2581evil": 951,
  "\u2581trust": 952,
  "\u2581silver": 953,
  "\u2581whisper": 954,
  "\u2581p": 955,
  "\u2581breath": 956,
  "\u2581horses": 957,
  "\u2581youth": 958,
  "ent": 959,
  "\u2581beginning": 960,
  "\u2581pull": 961,
  "\u2581camp": 962,
  "\u2581expect": 963,
  "\u2581especial": 964,
  "\u2581clothes": 965,
  "\u2581morrow": 966,
  "\u2581presence": 967,
  "\u2581neck": 968,
  "te": 969,
  "\u2581tea": 970,
  "\u2581shore": 971,
  "\u2581minute": 972,
  "\u2581peter": 973,
  "\u2581eager": 974,
  "\u2581shot": 975,
  "ge": 976,
  "\u2581degree": 977,
  "\u2581former": 978,
  "\u2581color": 979,
  "\u2581bird": 980,
  "hrew": 981,
  "the": 982,
  "\u2581simpl": 983,
  "\u2581seek": 984,
  "\u2581carry": 985,
  "\u2581serious": 986,
  "side": 987,
  "\u2581iron": 988,
  "by": 989,
  "\u2581moon": 990,
  "ian": 991,
  "\u2581north": 992,
  "\u2581thin": 993,
  "\u2581stream": 994,
  "\u2581board": 995,
  "\u2581notice": 996,
  "\u2581easily": 997,
  "\u2581mountain": 998,
  "\u2581stranger": 999,
  "\u2581couldn": 1000,
  "\u2581duty": 1001,
  "\u2581sufficient": 1002,
  "\u2581plan": 1003,
  "\u2581faint": 1004,
  "\u2581burn": 1005,
  "\u2581leaving": 1006,
  "\u2581lie": 1007,
  "\u2581journey": 1008,
  "\u2581field": 1009,
  "\u2581terrible": 1010,
  "\u2581tall": 1011,
  "\u2581knight": 1012,
  "\u2581noble": 1013,
  "\u2581agree": 1014,
  "\u2581stick": 1015,
  "\u2581marry": 1016,
  "\u2581rais": 1017,
  "\u2581comfort": 1018,
  "\u2581thick": 1019,
  "\u2581lo": 1020,
  "\u2581shut": 1021,
  "\u2581address": 1022,
  "\u2581attack": 1023,
  "\u2581guess": 1024,
  "\u2581calm": 1025,
  "ley": 1026,
  "\u2581twelve": 1027,
  "\u2581rise": 1028,
  "ist": 1029,
  "\u2581winter": 1030,
  "\u2581village": 1031,
  "\u2581showed": 1032,
  "\u2581pick": 1033,
  "\u2581anxious": 1034,
  "\u2581game": 1035,
  "\u2581rapid": 1036,
  "\u2581forty": 1037,
  "wise": 1038,
  "\u2581nice": 1039,
  "\u2581inquir": 1040,
  "\u2581habit": 1041,
  "\u2581move": 1042,
  "\u2581honour": 1043,
  "\u2581honor": 1044,
  "\u2581cast": 1045,
  "ver": 1046,
  "\u2581fish": 1047,
  "\u2581slave": 1048,
  "\u2581shape": 1049,
  "\u2581broke": 1050,
  "stood": 1051,
  "\u2581gain": 1052,
  "\u2581guard": 1053,
  "\u2581ladies": 1054,
  "\u2581judge": 1055,
  "\u2581wave": 1056,
  "\u2581term": 1057,
  "\u2581expected": 1058,
  "\u2581hill": 1059,
  "\u2581principle": 1060,
  "\u2581pray": 1061,
  "tic": 1062,
  "\u2581bene": 1063,
  "\u2581summer": 1064,
  "\u2581path": 1065,
  "\u2581golden": 1066,
  "\u2581lift": 1067,
  "\u2581belong": 1068,
  "\u2581books": 1069,
  "\u2581decided": 1070,
  "selves": 1071,
  "\u2581lead": 1072,
  "ci": 1073,
  "\u2581shook": 1074,
  "\u2581pain": 1075,
  "\u2581influence": 1076,
  "\u2581music": 1077,
  "\u2581marriage": 1078,
  "\u2581broad": 1079,
  "\u2581middle": 1080,
  "\u2581movement": 1081,
  "\u2581learned": 1082,
  "\u2581enemy": 1083,
  "\u2581history": 1084,
  "\u2581latter": 1085,
  "\u2581le": 1086,
  "\u2581kiss": 1087,
  "\u2581post": 1088,
  "at": 1089,
  "\u2581sw": 1090,
  "\u2581lower": 1091,
  "\u2581born": 1092,
  "\u2581mad": 1093,
  "ac": 1094,
  "\u2581states": 1095,
  "\u2581yard": 1096,
  "ot": 1097,
  "\u2581exist": 1098,
  "\u2581per": 1099,
  "\u2581reply": 1100,
  "\u2581succeed": 1101,
  "\u2581bank": 1102,
  "most": 1103,
  "\u2581forget": 1104,
  "\u2581sorr": 1105,
  "\u2581blow": 1106,
  "\u2581wear": 1107,
  "\u2581american": 1108,
  "\u2581treat": 1109,
  "head": 1110,
  "\u2581enjoy": 1111,
  "\u2581contain": 1112,
  "\u2581shout": 1113,
  "\u2581lot": 1114,
  "\u2581grand": 1115,
  "\u2581measure": 1116,
  "\u2581rain": 1117,
  "\u2581meant": 1118,
  "\u2581oblig": 1119,
  "\u2581sail": 1120,
  "\u2581steps": 1121,
  "eth": 1122,
  "pp": 1123,
  "\u2581event": 1124,
  "\u2581taste": 1125,
  "\u2581comes": 1126,
  "\u2581suit": 1127,
  "\u2581makes": 1128,
  "\u2581grass": 1129,
  "\u2581personal": 1130,
  "\u2581c": 1131,
  "\u2581firm": 1132,
  "clock": 1133,
  "\u2581castle": 1134,
  "\u2581madame": 1135,
  "\u2581ha": 1136,
  "\u2581repeated": 1137,
  "\u2581future": 1138,
  "\u2581health": 1139,
  "ca": 1140,
  "\u2581building": 1141,
  "\u2581edge": 1142,
  "\u2581hung": 1143,
  "\u2581fit": 1144,
  "\u2581intend": 1145,
  "\u2581prisoner": 1146,
  "\u2581charge": 1147,
  "\u2581coat": 1148,
  "\u2581po": 1149,
  "\u2581picture": 1150,
  "\u2581proceed": 1151,
  "\u2581loud": 1152,
  "\u2581catch": 1153,
  "vi": 1154,
  "\u2581roll": 1155,
  "\u2581bread": 1156,
  "\u2581rush": 1157,
  "\u2581yellow": 1158,
  "\u2581important": 1159,
  "\u2581sigh": 1160,
  "\u2581race": 1161,
  "\u2581west": 1162,
  "\u2581darkness": 1163,
  "\u2581carriage": 1164,
  "\u2581wouldn": 1165,
  "\u2581pleased": 1166,
  "\u2581bill": 1167,
  "\u2581spread": 1168,
  "\u2581curious": 1169,
  "\u2581class": 1170,
  "po": 1171,
  "\u2581jane": 1172,
  "\u2581mo": 1173,
  "\u2581passion": 1174,
  "\u2581blind": 1175,
  "\u2581dropp": 1176,
  "\u2581content": 1177,
  "\u2581chang": 1178,
  "\u2581noise": 1179,
  "\u2581press": 1180,
  "\u2581space": 1181,
  "\u2581speech": 1182,
  "\u2581dry": 1183,
  "\u2581ancient": 1184,
  "\u2581absolute": 1185,
  "\u2581conduct": 1186,
  "\u2581gate": 1187,
  "\u2581pound": 1188,
  "\u2581increase": 1189,
  "\u2581march": 1190,
  "\u2581existence": 1191,
  "\u2581beast": 1192,
  "\u2581knee": 1193,
  "\u2581clean": 1194,
  "\u2581colour": 1195,
  "\u2581passing": 1196,
  "\u2581dance": 1197,
  "\u2581dare": 1198,
  "\u2581serve": 1199,
  "\u2581determined": 1200,
  "\u2581li": 1201,
  "\u2581skin": 1202,
  "\u2581faith": 1203,
  "\u2581declar": 1204,
  "\u2581storm": 1205,
  "\u2581priest": 1206,
  "\u2581narrow": 1207,
  "\u2581support": 1208,
  "\u2581sword": 1209,
  "do": 1210,
  "\u2581private": 1211,
  "ru": 1212,
  "\u2581cousin": 1213,
  "\u2581cook": 1214,
  "\u2581st": 1215,
  "ut": 1216,
  "\u2581search": 1217,
  "\u2581hole": 1218,
  "\u2581prevent": 1219,
  "\u2581various": 1220,
  "\u2581extreme": 1221,
  "\u2581bottom": 1222,
  "ad": 1223,
  "\u2581nobody": 1224,
  "\u2581drawing": 1225,
  "be": 1226,
  "\u2581spite": 1227,
  "\u2581individual": 1228,
  "\u2581dick": 1229,
  "\u2581fixed": 1230,
  "\u2581opportunit": 1231,
  "\u2581wine": 1232,
  "\u2581brave": 1233,
  "\u2581dis": 1234,
  "\u2581rid": 1235,
  "\u2581poet": 1236,
  "\u2581advantage": 1237,
  "\u2581actual": 1238,
  "\u2581france": 1239,
  "\u2581tired": 1240,
  "\u2581walls": 1241,
  "\u2581pai": 1242,
  "\u2581plant": 1243,
  "\u2581wrote": 1244,
  "\u2581royal": 1245,
  "\u2581dollar": 1246,
  "ir": 1247,
  "\u2581suggest": 1248,
  "\u2581lake": 1249,
  "\u2581main": 1250,
  "\u2581obtain": 1251,
  "\u2581stretch": 1252,
  "\u2581bar": 1253,
  "ke": 1254,
  "mp": 1255,
  "\u2581concern": 1256,
  "\u2581bitter": 1257,
  "\u2581sake": 1258,
  "\u2581isn": 1259,
  "what": 1260,
  "\u2581cheek": 1261,
  "ha": 1262,
  "op": 1263,
  "\u2581breakfast": 1264,
  "ff": 1265,
  "\u2581desert": 1266,
  "me": 1267,
  "\u2581instance": 1268,
  "\u2581study": 1269,
  "\u2581astonish": 1270,
  "\u2581colonel": 1271,
  "\u2581special": 1272,
  "\u2581value": 1273,
  "\u2581proud": 1274,
  "\u2581tin": 1275,
  "\u2581wing": 1276,
  "\u2581nation": 1277,
  "\u2581wors": 1278,
  "\u2581handsome": 1279,
  "\u2581lives": 1280,
  "\u2581passage": 1281,
  "ism": 1282,
  "\u2581period": 1283,
  "\u2581frighten": 1284,
  "\u2581pure": 1285,
  "\u2581frequent": 1286,
  "\u2581angr": 1287,
  "\u2581hurt": 1288,
  "\u2581constant": 1289,
  "go": 1290,
  "\u2581sick": 1291,
  "ta": 1292,
  "\u2581lose": 1293,
  "\u2581chamber": 1294,
  "ious": 1295,
  "\u2581destroy": 1296,
  "\u2581disappear": 1297,
  "\u2581grant": 1298,
  "\u2581meeting": 1299,
  "\u2581ring": 1300,
  "ure": 1301,
  "\u2581settl": 1302,
  "\u2581servant": 1303,
  "\u2581birds": 1304,
  "\u2581george": 1305,
  "\u2581jack": 1306,
  "\u2581gentle": 1307,
  "\u2581apparent": 1308,
  "\u2581mount": 1309,
  "ated": 1310,
  "\u2581sand": 1311,
  "ial": 1312,
  "\u2581tender": 1313,
  "\u2581burst": 1314,
  "\u2581valley": 1315,
  "\u2581writing": 1316,
  "\u2581shop": 1317,
  "\u2581sp": 1318,
  "\u2581holding": 1319,
  "\u2581fifteen": 1320,
  "\u2581jump": 1321,
  "\u2581prove": 1322,
  "\u2581christian": 1323,
  "\u2581henry": 1324,
  "\u2581ro": 1325,
  "\u2581fool": 1326,
  "\u2581bo": 1327,
  "\u2581ears": 1328,
  "\u2581beat": 1329,
  "\u2581language": 1330,
  "\u2581inside": 1331,
  "\u2581soldiers": 1332,
  "ni": 1333,
  "\u2581success": 1334,
  "\u2581ruin": 1335,
  "\u2581christ": 1336,
  "out": 1337,
  "\u2581pen": 1338,
  "\u2581mark": 1339,
  "\u2581situation": 1340,
  "\u2581ti": 1341,
  "\u2581gentlemen": 1342,
  "\u2581fancy": 1343,
  "\u2581season": 1344,
  "\u2581inform": 1345,
  "\u2581delight": 1346,
  "\u2581receive": 1347,
  "\u2581goes": 1348,
  "\u2581heat": 1349,
  "\u2581cool": 1350,
  "\u2581attend": 1351,
  "\u2581vain": 1352,
  "\u2581vessel": 1353,
  "\u2581william": 1354,
  "\u2581group": 1355,
  "\u2581lock": 1356,
  "\u2581everybody": 1357,
  "\u2581stair": 1358,
  "ory": 1359,
  "\u2581quarter": 1360,
  "\u2581report": 1361,
  "ct": 1362,
  "\u2581murder": 1363,
  "\u2581property": 1364,
  "\u2581render": 1365,
  "bo": 1366,
  "\u2581luck": 1367,
  "\u2581knock": 1368,
  "\u2581earnest": 1369,
  "way": 1370,
  "\u2581moral": 1371,
  "\u2581honest": 1372,
  "\u2581b": 1373,
  "\u2581note": 1374,
  "\u2581wor": 1375,
  "\u2581knowing": 1376,
  "un": 1377,
  "\u2581square": 1378,
  "\u2581port": 1379,
  "\u2581built": 1380,
  "\u2581companion": 1381,
  "\u2581dust": 1382,
  "\u2581tru": 1383,
  "\u2581seiz": 1384,
  "\u2581tail": 1385,
  "\u2581york": 1386,
  "\u2581recover": 1387,
  "\u2581news": 1388,
  "\u2581climb": 1389,
  "\u2581fond": 1390,
  "\u2581fate": 1391,
  "\u2581weak": 1392,
  "\u2581fruit": 1393,
  "\u2581grown": 1394,
  "\u2581spen": 1395,
  "\u2581station": 1396,
  "\u2581murmur": 1397,
  "\u2581ordinar": 1398,
  "\u2581ca": 1399,
  "\u2581laws": 1400,
  "\u2581imagine": 1401,
  "\u2581gun": 1402,
  "\u2581rough": 1403,
  "\u2581ex": 1404,
  "sh": 1405,
  "\u2581bare": 1406,
  "\u2581surface": 1407,
  "\u2581possession": 1408,
  "\u2581walking": 1409,
  "\u2581tongue": 1410,
  "\u2581duke": 1411,
  "\u2581weather": 1412,
  "\u2581wealth": 1413,
  "\u2581courage": 1414,
  "\u2581temper": 1415,
  "\u2581ball": 1416,
  "\u2581claim": 1417,
  "\u2581mar": 1418,
  "\u2581nose": 1419,
  "\u2581fashion": 1420,
  "\u2581gray": 1421,
  "\u2581sorrow": 1422,
  "\u2581opposite": 1423,
  "ab": 1424,
  "\u2581social": 1425,
  "\u2581crown": 1426,
  "\u2581laughing": 1427,
  "\u2581cla": 1428,
  "\u2581swift": 1429,
  "\u2581reading": 1430,
  "no": 1431,
  "\u2581ideas": 1432,
  "\u2581pour": 1433,
  "\u2581empty": 1434,
  "\u2581vi": 1435,
  "\u2581difference": 1436,
  "\u2581smiling": 1437,
  "\u2581avoid": 1438,
  "\u2581row": 1439,
  "\u2581alto": 1440,
  "sleep": 1441,
  "\u2581due": 1442,
  "\u2581material": 1443,
  "\u2581breast": 1444,
  "\u2581prepared": 1445,
  "\u2581suffering": 1446,
  "\u2581distinct": 1447,
  "\u2581meaning": 1448,
  "\u2581brain": 1449,
  "live": 1450,
  "\u2581papa": 1451,
  "ster": 1452,
  "\u2581centur": 1453,
  "\u2581lover": 1454,
  "\u2581leap": 1455,
  "\u2581east": 1456,
  "ally": 1457,
  "\u2581kingdom": 1458,
  "\u2581memory": 1459,
  "\u2581cost": 1460,
  "\u2581maid": 1461,
  "\u2581virtue": 1462,
  "\u2581imp": 1463,
  "\u2581guest": 1464,
  "\u2581motion": 1465,
  "\u2581rode": 1466,
  "\u2581fault": 1467,
  "\u2581bent": 1468,
  "\u2581paris": 1469,
  "\u2581hath": 1470,
  "\u2581jo": 1471,
  "\u2581mountains": 1472,
  "\u2581vast": 1473,
  "ig": 1474,
  "\u2581satisfied": 1475,
  "\u2581notic": 1476,
  "\u2581fur": 1477,
  "\u2581united": 1478,
  "\u2581gent": 1479,
  "\u2581pity": 1480,
  "\u2581opening": 1481,
  "\u2581despair": 1482,
  "\u2581earl": 1483,
  "\u2581wheel": 1484,
  "\u2581engag": 1485,
  "\u2581rising": 1486,
  "\u2581soldier": 1487,
  "\u2581pride": 1488,
  "que": 1489,
  "\u2581justice": 1490,
  "\u2581machine": 1491,
  "\u2581regular": 1492,
  "om": 1493,
  "\u2581hurried": 1494,
  "\u2581system": 1495,
  "\u2581alarm": 1496,
  "\u2581dreadful": 1497,
  "\u2581double": 1498,
  "\u2581supper": 1499,
  "va": 1500,
  "\u2581example": 1501,
  "\u2581roof": 1502,
  "\u2581shoe": 1503,
  "\u2581buy": 1504,
  "\u2581finding": 1505,
  "\u2581mill": 1506,
  "\u2581contrar": 1507,
  "\u2581peculiar": 1508,
  "\u2581supposed": 1509,
  "\u2581produc": 1510,
  "\u2581kitchen": 1511,
  "\u2581win": 1512,
  "cy": 1513,
  "\u2581terror": 1514,
  "\u2581servants": 1515,
  "\u2581fat": 1516,
  "kin": 1517,
  "\u2581method": 1518,
  "\u2581awful": 1519,
  "\u2581knows": 1520,
  "\u2581gaz": 1521,
  "\u2581serv": 1522,
  "\u2581reflect": 1523,
  "\u2581welcome": 1524,
  "\u2581major": 1525,
  "\u2581chose": 1526,
  "\u2581ri": 1527,
  "\u2581angel": 1528,
  "\u2581advanc": 1529,
  "\u2581descend": 1530,
  "\u2581k": 1531,
  "let": 1532,
  "\u2581push": 1533,
  "\u2581salt": 1534,
  "\u2581bold": 1535,
  "\u2581tale": 1536,
  "\u2581mistress": 1537,
  "\u2581baby": 1538,
  "\u2581qualit": 1539,
  "\u2581evidence": 1540,
  "\u2581boil": 1541,
  "\u2581shin": 1542,
  "\u2581grey": 1543,
  "\u2581suffer": 1544,
  "ol": 1545,
  "\u2581doesn": 1546,
  "ship": 1547,
  "\u2581share": 1548,
  "\u2581monsieur": 1549,
  "\u2581watching": 1550,
  "\u2581cup": 1551,
  "\u2581roman": 1552,
  "\u2581rate": 1553,
  "\u2581gathered": 1554,
  "\u2581crime": 1555,
  "\u2581ne": 1556,
  "\u2581fly": 1557,
  "\u2581smoke": 1558,
  "\u2581du": 1559,
  "ag": 1560,
  "\u2581twice": 1561,
  "\u2581putt": 1562,
  "\u2581frank": 1563,
  "\u2581wash": 1564,
  "mo": 1565,
  "\u2581flat": 1566,
  "\u2581patient": 1567,
  "\u2581lu": 1568,
  "\u2581pair": 1569,
  "\u2581dai": 1570,
  "\u2581mass": 1571,
  "\u2581travel": 1572,
  "\u2581flash": 1573,
  "\u2581heads": 1574,
  "\u2581stepp": 1575,
  "\u2581arthur": 1576,
  "id": 1577,
  "\u2581devil": 1578,
  "ah": 1579,
  "\u2581affection": 1580,
  "\u2581trade": 1581,
  "\u2581rule": 1582,
  "\u2581milk": 1583,
  "\u2581caus": 1584,
  "\u2581lamp": 1585,
  "light": 1586,
  "\u2581lean": 1587,
  "\u2581gift": 1588,
  "\u2581perceiv": 1589,
  "\u2581cruel": 1590,
  "\u2581excellent": 1591,
  "\u2581impression": 1592,
  "\u2581proved": 1593,
  "\u2581employ": 1594,
  "\u2581tower": 1595,
  "\u2581rare": 1596,
  "\u2581authority": 1597,
  "\u2581consequence": 1598,
  "\u2581height": 1599,
  "\u2581charles": 1600,
  "\u2581flew": 1601,
  "\u2581en": 1602,
  "\u2581confidence": 1603,
  "if": 1604,
  "\u2581intention": 1605,
  "\u2581perform": 1606,
  "\u2581distant": 1607,
  "\u2581store": 1608,
  "\u2581extend": 1609,
  "\u2581image": 1610,
  "\u2581rank": 1611,
  "\u2581weight": 1612,
  "\u2581president": 1613,
  "\u2581size": 1614,
  "\u2581establish": 1615,
  "\u2581woods": 1616,
  "im": 1617,
  "\u2581sixt": 1618,
  "like": 1619,
  "\u2581busy": 1620,
  "while": 1621,
  "\u2581false": 1622,
  "\u2581prison": 1623,
  "\u2581telling": 1624,
  "\u2581thorough": 1625,
  "\u2581million": 1626,
  "\u2581aware": 1627,
  "\u2581occurr": 1628,
  "\u2581similar": 1629,
  "\u2581conceal": 1630,
  "\u2581type": 1631,
  "\u2581amount": 1632,
  "mi": 1633,
  "\u2581feature": 1634,
  "\u2581working": 1635,
  "\u2581dull": 1636,
  "\u2581violent": 1637,
  "\u2581excuse": 1638,
  "\u2581song": 1639,
  "ritten": 1640,
  "time": 1641,
  "\u2581butter": 1642,
  "\u2581emperor": 1643,
  "aught": 1644,
  "\u2581depend": 1645,
  "stone": 1646,
  "\u2581corn": 1647,
  "bu": 1648,
  "\u2581mistake": 1649,
  "\u2581loss": 1650,
  "\u2581farm": 1651,
  "\u2581smooth": 1652,
  "\u2581strike": 1653,
  "\u2581horror": 1654,
  "\u2581science": 1655,
  "\u2581obey": 1656,
  "\u2581parent": 1657,
  "\u2581treasure": 1658,
  "\u2581holy": 1659,
  "\u2581splendid": 1660,
  "rose": 1661,
  "\u2581cloth": 1662,
  "\u2581necessity": 1663,
  "\u2581religion": 1664,
  "\u2581unknown": 1665,
  "\u2581bag": 1666,
  "\u2581fierce": 1667,
  "\u2581drove": 1668,
  "\u2581sum": 1669,
  "\u2581interesting": 1670,
  "ka": 1671,
  "\u2581rope": 1672,
  "\u2581consent": 1673,
  "\u2581houses": 1674,
  "\u2581task": 1675,
  "\u2581powerful": 1676,
  "\u2581pack": 1677,
  "\u2581drop": 1678,
  "\u2581liberty": 1679,
  "\u2581minister": 1680,
  "\u2581detail": 1681,
  "\u2581gloom": 1682,
  "\u2581speed": 1683,
  "\u2581promis": 1684,
  "\u2581coast": 1685,
  "\u2581sin": 1686,
  "\u2581advance": 1687,
  "\u2581clever": 1688,
  "\u2581f": 1689,
  "\u2581admit": 1690,
  "\u2581couple": 1691,
  "\u2581message": 1692,
  "\u2581german": 1693,
  "\u2581temple": 1694,
  "\u2581yesterday": 1695,
  "pt": 1696,
  "\u2581emotion": 1697,
  "over": 1698,
  "\u2581labor": 1699,
  "\u2581sell": 1700,
  "\u2581prayer": 1701,
  "\u2581original": 1702,
  "\u2581diamond": 1703,
  "\u2581wicked": 1704,
  "\u2581require": 1705,
  "\u2581hills": 1706,
  "\u2581spra": 1707,
  "\u2581familiar": 1708,
  "\u2581pro": 1709,
  "\u2581cottage": 1710,
  "\u2581progress": 1711,
  "\u2581shock": 1712,
  "\u2581sunday": 1713,
  "\u2581sought": 1714,
  "wood": 1715,
  "\u2581police": 1716,
  "\u2581unto": 1717,
  "\u2581represent": 1718,
  "\u2581ride": 1719,
  "\u2581bridge": 1720,
  "\u2581oak": 1721,
  "\u2581yield": 1722,
  "\u2581bath": 1723,
  "\u2581van": 1724,
  "\u2581lion": 1725,
  "\u2581suspect": 1726,
  "\u2581paus": 1727,
  "\u2581edward": 1728,
  "\u2581begg": 1729,
  "\u2581eleven": 1730,
  "\u2581teeth": 1731,
  "\u2581circle": 1732,
  "\u2581ceas": 1733,
  "\u2581america": 1734,
  "\u2581cheer": 1735,
  "\u2581depart": 1736,
  "\u2581deliver": 1737,
  "\u2581pre": 1738,
  "\u2581charm": 1739,
  "\u2581upper": 1740,
  "\u2581meal": 1741,
  "\u2581pardon": 1742,
  "\u2581native": 1743,
  "\u2581nurse": 1744,
  "\u2581huge": 1745,
  "gg": 1746,
  "\u2581satisfaction": 1747,
  "\u2581key": 1748,
  "\u2581maiden": 1749,
  "\u2581ni": 1750,
  "\u2581countenance": 1751,
  "\u2581gradual": 1752,
  "ti": 1753,
  "\u2581carrying": 1754,
  "\u2581dogs": 1755,
  "\u2581james": 1756,
  "\u2581page": 1757,
  "\u2581sympath": 1758,
  "\u2581silk": 1759,
  "\u2581ice": 1760,
  "\u2581sa": 1761,
  "\u2581brothers": 1762,
  "\u2581forgive": 1763,
  "\u2581professor": 1764,
  "\u2581pipe": 1765,
  "\u2581proof": 1766,
  "\u2581occupie": 1767,
  "\u2581favour": 1768,
  "\u2581unfortunate": 1769,
  "\u2581price": 1770,
  "\u2581severe": 1771,
  "\u2581freedom": 1772,
  "\u2581stage": 1773,
  "\u2581majesty": 1774,
  "\u2581previous": 1775,
  "\u2581farther": 1776,
  "\u2581match": 1777,
  "\u2581excitement": 1778,
  "\u2581aid": 1779,
  "\u2581resolv": 1780,
  "pe": 1781,
  "bi": 1782,
  "\u2581acquaintance": 1783,
  "\u2581physical": 1784,
  "\u2581imagination": 1785,
  "\u2581alas": 1786,
  "\u2581solemn": 1787,
  "\u2581leading": 1788,
  "\u2581seventeen": 1789,
  "\u2581bore": 1790,
  "\u2581faithful": 1791,
  "\u2581limit": 1792,
  "\u2581record": 1793,
  "\u2581superior": 1794,
  "\u2581exercise": 1795,
  "\u2581hotel": 1796,
  "\u2581sheep": 1797,
  "\u2581advice": 1798,
  "\u2581fourth": 1799,
  "\u2581conscious": 1800,
  "\u2581float": 1801,
  "\u2581praise": 1802,
  "\u2581na": 1803,
  "\u2581stuff": 1804,
  "\u2581cheerful": 1805,
  "\u2581refus": 1806,
  "\u2581curiosit": 1807,
  "\u2581grief": 1808,
  "\u2581afford": 1809,
  "\u2581cur": 1810,
  "gen": 1811,
  "\u2581article": 1812,
  "\u2581substance": 1813,
  "\u2581level": 1814,
  "tion": 1815,
  "\u2581mile": 1816,
  "\u2581insist": 1817,
  "\u2581trace": 1818,
  "\u2581produce": 1819,
  "\u2581shame": 1820,
  "\u2581harm": 1821,
  "\u2581practical": 1822,
  "\u2581basket": 1823,
  "\u2581hither": 1824,
  "\u2581control": 1825,
  "\u2581deck": 1826,
  "ow": 1827,
  "\u2581abandon": 1828,
  "\u2581struggle": 1829,
  "\u2581dispos": 1830,
  "\u2581continue": 1831,
  "\u2581jew": 1832,
  "ble": 1833,
  "\u2581dozen": 1834,
  "\u2581band": 1835,
  "\u2581dangerous": 1836,
  "\u2581slipp": 1837,
  "\u2581sacrifice": 1838,
  "\u2581fox": 1839,
  "\u2581sevent": 1840,
  "\u2581loose": 1841,
  "\u2581flu": 1842,
  "\u2581fairy": 1843,
  "\u2581lies": 1844,
  "\u2581excited": 1845,
  "\u2581information": 1846,
  "\u2581tar": 1847,
  "\u2581anger": 1848,
  "\u2581stock": 1849,
  "\u2581stars": 1850,
  "ho": 1851,
  "\u2581custom": 1852,
  "\u2581strain": 1853,
  "\u2581remov": 1854,
  "\u2581adam": 1855,
  "\u2581smith": 1856,
  "\u2581importance": 1857,
  "\u2581requir": 1858,
  "ga": 1859,
  "\u2581fill": 1860,
  "\u2581meat": 1861,
  "\u2581sides": 1862,
  "\u2581trail": 1863,
  "\u2581divine": 1864,
  "\u2581flame": 1865,
  "\u2581anybody": 1866,
  "\u2581delicate": 1867,
  "\u2581fold": 1868,
  "\u2581consideration": 1869,
  "\u2581beg": 1870,
  "\u2581bottle": 1871,
  "che": 1872,
  "\u2581portion": 1873,
  "\u2581sentence": 1874,
  "\u2581dawn": 1875,
  "\u2581throat": 1876,
  "\u2581dim": 1877,
  "ell": 1878,
  "\u2581choose": 1879,
  "\u2581desired": 1880,
  "\u2581bodie": 1881,
  "\u2581considerabl": 1882,
  "vo": 1883,
  "\u2581host": 1884,
  "\u2581haven": 1885,
  "hi": 1886,
  "\u2581pointed": 1887,
  "\u2581extraordinar": 1888,
  "\u2581farmer": 1889,
  "gun": 1890,
  "\u2581h": 1891,
  "\u2581remarkabl": 1892,
  "\u2581miser": 1893,
  "\u2581rocks": 1894,
  "\u2581modern": 1895,
  "\u2581political": 1896,
  "\u2581paint": 1897,
  "\u2581sailor": 1898,
  "\u2581ta": 1899,
  "\u2581brief": 1900,
  "\u2581elsie": 1901,
  "\u2581flesh": 1902,
  "\u2581mi": 1903,
  "\u2581ocean": 1904,
  "\u2581governor": 1905,
  "\u2581odd": 1906,
  "io": 1907,
  "\u2581suspicion": 1908,
  "\u2581entrance": 1909,
  "\u2581check": 1910,
  "\u2581flow": 1911,
  "\u2581club": 1912,
  "\u2581flight": 1913,
  "\u2581consist": 1914,
  "\u2581capital": 1915,
  "\u2581mamma": 1916,
  "\u2581lone": 1917,
  "\u2581specie": 1918,
  "\u2581correct": 1919,
  "\u2581crack": 1920,
  "\u2581spend": 1921,
  "\u2581secure": 1922,
  "\u2581sensation": 1923,
  "\u2581design": 1924,
  "\u2581midst": 1925,
  "\u2581hurry": 1926,
  "\u2581innocent": 1927,
  "ler": 1928,
  "\u2581visibl": 1929,
  "\u2581suffered": 1930,
  "con": 1931,
  "\u2581faces": 1932,
  "\u2581hide": 1933,
  "ept": 1934,
  "\u2581education": 1935,
  "\u2581frame": 1936,
  "\u2581nay": 1937,
  "\u2581instrument": 1938,
  "\u2581foolish": 1939,
  "\u2581hang": 1940,
  "\u2581reward": 1941,
  "\u2581nineteen": 1942,
  "\u2581argument": 1943,
  "\u2581hunt": 1944,
  "\u2581fe": 1945,
  "\u2581elder": 1946,
  "\u2581worst": 1947,
  "\u2581neighbor": 1948,
  "\u2581pet": 1949,
  "\u2581gaze": 1950,
  "\u2581practice": 1951,
  "\u2581request": 1952,
  "\u2581load": 1953,
  "\u2581visitor": 1954,
  "\u2581ver": 1955,
  "\u2581distress": 1956,
  "\u2581resum": 1957,
  "\u2581stern": 1958,
  "\u2581track": 1959,
  "\u2581belief": 1960,
  "\u2581worn": 1961,
  "\u2581fields": 1962,
  "\u2581el": 1963,
  "\u2581interrupted": 1964,
  "\u2581mental": 1965,
  "\u2581sixteen": 1966,
  "ba": 1967,
  "\u2581behold": 1968,
  "\u2581hunting": 1969,
  "\u2581yo": 1970,
  "\u2581wander": 1971,
  "artagnan": 1972,
  "\u2581enemie": 1973,
  "\u2581operation": 1974,
  "\u2581keen": 1975,
  "\u2581bay": 1976,
  "\u2581ug": 1977,
  "\u2581pause": 1978,
  "\u2581mysterious": 1979,
  "\u2581depth": 1980,
  "\u2581hasten": 1981,
  "\u2581hate": 1982,
  "\u2581dread": 1983,
  "\u2581calling": 1984,
  "\u2581buri": 1985,
  "\u2581willing": 1986,
  "\u2581helen": 1987,
  "\u2581charming": 1988,
  "\u2581relief": 1989,
  "\u2581refuse": 1990,
  "\u2581apple": 1991,
  "\u2581shade": 1992,
  "\u2581choice": 1993,
  "\u2581mist": 1994,
  "\u2581announc": 1995,
  "\u2581useful": 1996,
  "\u2581hence": 1997,
  "\u2581appeal": 1998,
  "\u2581famous": 1999,
  "\u2581interested": 2000,
  "ger": 2001,
  "\u2581newspaper": 2002,
  "\u2581plenty": 2003,
  "\u2581accomplish": 2004,
  "\u2581nervous": 2005,
  "pi": 2006,
  "\u2581heap": 2007,
  "\u2581chain": 2008,
  "\u2581reflection": 2009,
  "\u2581favor": 2010,
  "\u2581cave": 2011,
  "\u2581bearing": 2012,
  "\u2581lest": 2013,
  "\u2581glory": 2014,
  "\u2581merchant": 2015,
  "\u2581queer": 2016,
  "\u2581union": 2017,
  "\u2581mix": 2018,
  "\u2581pot": 2019,
  "lly": 2020,
  "\u2581separate": 2021,
  "\u2581region": 2022,
  "\u2581root": 2023,
  "\u2581aim": 2024,
  "\u2581jealous": 2025,
  "\u2581slep": 2026,
  "ite": 2027,
  "\u2581harry": 2028,
  "\u2581companions": 2029,
  "\u2581hale": 2030,
  "\u2581shell": 2031,
  "of": 2032,
  "\u2581furnish": 2033,
  "\u2581sang": 2034,
  "\u2581arrival": 2035,
  "\u2581delighted": 2036,
  "\u2581absence": 2037,
  "\u2581arch": 2038,
  "\u2581consciousness": 2039,
  "\u2581leader": 2040,
  "\u2581grasp": 2041,
  "\u2581chest": 2042,
  "ville": 2043,
  "\u2581waste": 2044,
  "\u2581ships": 2045,
  "\u2581knife": 2046,
  "\u2581precious": 2047,
  "\u2581element": 2048,
  "\u2581witness": 2049,
  "some": 2050,
  "\u2581risk": 2051,
  "\u2581thunder": 2052,
  "\u2581ease": 2053,
  "\u2581raise": 2054,
  "\u2581arrang": 2055,
  "\u2581injur": 2056,
  "\u2581vision": 2057,
  "\u2581judgment": 2058,
  "\u2581reader": 2059,
  "pa": 2060,
  "\u2581thrust": 2061,
  "\u2581delay": 2062,
  "\u2581observation": 2063,
  "\u2581lesson": 2064,
  "\u2581friendship": 2065,
  "ade": 2066,
  "rank": 2067,
  "\u2581base": 2068,
  "\u2581provid": 2069,
  "\u2581ve": 2070,
  "\u2581principal": 2071,
  "\u2581writ": 2072,
  "\u2581card": 2073,
  "\u2581ga": 2074,
  "\u2581et": 2075,
  "\u2581apartment": 2076,
  "\u2581blame": 2077,
  "\u2581anyone": 2078,
  "\u2581alice": 2079,
  "\u2581burning": 2080,
  "\u2581hut": 2081,
  "\u2581trembling": 2082,
  "\u2581somebody": 2083,
  "\u2581pace": 2084,
  "\u2581par": 2085,
  "\u2581observe": 2086,
  "\u2581labour": 2087,
  "\u2581recall": 2088,
  "\u2581ways": 2089,
  "\u2581everywhere": 2090,
  "\u2581ja": 2091,
  "\u2581ju": 2092,
  "fi": 2093,
  "\u2581fighting": 2094,
  "\u2581popular": 2095,
  "\u2581trial": 2096,
  "\u2581assured": 2097,
  "\u2581brilliant": 2098,
  "\u2581hero": 2099,
  "\u2581min": 2100,
  "\u2581tear": 2101,
  "\u2581retreat": 2102,
  "\u2581forc": 2103,
  "\u2581r": 2104,
  "\u2581wishes": 2105,
  "\u2581ghost": 2106,
  "\u2581grandfather": 2107,
  "\u2581militar": 2108,
  "\u2581warn": 2109,
  "ron": 2110,
  "\u2581gods": 2111,
  "\u2581unhapp": 2112,
  "\u2581europe": 2113,
  "\u2581kindness": 2114,
  "\u2581foreign": 2115,
  "\u2581peer": 2116,
  "\u2581miserable": 2117,
  "\u2581storie": 2118,
  "\u2581members": 2119,
  "\u2581teach": 2120,
  "\u2581remind": 2121,
  "\u2581pursu": 2122,
  "\u2581san": 2123,
  "\u2581exten": 2124,
  "\u2581occasional": 2125,
  "\u2581proportion": 2126,
  "\u2581maintain": 2127,
  "\u2581motive": 2128,
  "\u2581manage": 2129,
  "\u2581prompt": 2130,
  "\u2581hesitate": 2131,
  "shamed": 2132,
  "\u2581fancie": 2133,
  "\u2581eighty": 2134,
  "ier": 2135,
  "\u2581cow": 2136,
  "\u2581infinite": 2137,
  "\u2581horribl": 2138,
  "\u2581protest": 2139,
  "\u2581bull": 2140,
  "stair": 2141,
  "\u2581somewhere": 2142,
  "\u2581guide": 2143,
  "\u2581mutter": 2144,
  "\u2581bought": 2145,
  "\u2581neighbour": 2146,
  "\u2581energ": 2147,
  "\u2581intelligence": 2148,
  "\u2581savage": 2149,
  "\u2581pan": 2150,
  "\u2581repeat": 2151,
  "\u2581smell": 2152,
  "\u2581string": 2153,
  "\u2581qua": 2154,
  "\u2581hans": 2155,
  "\u2581plac": 2156,
  "\u2581jewel": 2157,
  "\u2581immense": 2158,
  "\u2581religious": 2159,
  "\u2581await": 2160,
  "\u2581explanation": 2161,
  "\u2581hollow": 2162,
  "\u2581active": 2163,
  "\u2581scream": 2164,
  "\u2581sold": 2165,
  "\u2581flying": 2166,
  "\u2581wasn": 2167,
  "\u2581vague": 2168,
  "\u2581z": 2169,
  "\u2581inclin": 2170,
  "\u2581elizabeth": 2171,
  "\u2581dignity": 2172,
  "\u2581vanish": 2173,
  "\u2581rang": 2174,
  "dying": 2175,
  "ldom": 2176,
  "\u2581reckon": 2177,
  "\u2581stiff": 2178,
  "\u2581cabin": 2179,
  "\u2581accustom": 2180,
  "\u2581stole": 2181,
  "\u2581skill": 2182,
  "\u2581nodd": 2183,
  "\u2581accident": 2184,
  "\u2581nest": 2185,
  "\u2581anxiet": 2186,
  "\u2581shelter": 2187,
  "\u2581doors": 2188,
  "\u2581civil": 2189,
  "\u2581rome": 2190,
  "\u2581protect": 2191,
  "\u2581comfortable": 2192,
  "\u2581paul": 2193,
  "\u2581becoming": 2194,
  "\u2581weapon": 2195,
  "\u2581style": 2196,
  "\u2581admitted": 2197,
  "\u2581gay": 2198,
  "\u2581safety": 2199,
  "field": 2200,
  "\u2581weary": 2201,
  "\u2581tremble": 2202,
  "\u2581print": 2203,
  "ward": 2204,
  "\u2581author": 2205,
  "\u2581ab": 2206,
  "\u2581plate": 2207,
  "\u2581dreams": 2208,
  "\u2581confess": 2209,
  "em": 2210,
  "\u2581conclusion": 2211,
  "\u2581unusual": 2212,
  "\u2581lack": 2213,
  "\u2581names": 2214,
  "\u2581understanding": 2215,
  "\u2581birth": 2216,
  "\u2581david": 2217,
  "\u2581hanging": 2218,
  "\u2581cart": 2219,
  "\u2581trip": 2220,
  "\u2581pile": 2221,
  "\u2581cit": 2222,
  "\u2581cha": 2223,
  "\u2581betray": 2224,
  "\u2581ka": 2225,
  "\u2581wit": 2226,
  "\u2581examin": 2227,
  "au": 2228,
  "\u2581hungr": 2229,
  "\u2581member": 2230,
  "\u2581marked": 2231,
  "\u2581display": 2232,
  "\u2581pin": 2233,
  "\u2581cent": 2234,
  "ches": 2235,
  "lin": 2236,
  "\u2581sentiment": 2237,
  "\u2581su": 2238,
  "\u2581prospect": 2239,
  "\u2581whil": 2240,
  "\u2581brush": 2241,
  "\u2581successful": 2242,
  "\u2581surround": 2243,
  "\u2581spare": 2244,
  "\u2581ut": 2245,
  "\u2581rat": 2246,
  "\u2581signal": 2247,
  "ov": 2248,
  "\u2581bob": 2249,
  "nt": 2250,
  "\u2581mood": 2251,
  "\u2581regret": 2252,
  "\u2581imagin": 2253,
  "\u2581universal": 2254,
  "ki": 2255,
  "\u2581wolf": 2256,
  "\u2581philip": 2257,
  "\u2581jim": 2258,
  "\u2581hasti": 2259,
  "\u2581appoint": 2260,
  "ists": 2261,
  "\u2581conscience": 2262,
  "\u2581female": 2263,
  "\u2581fortunate": 2264,
  "ham": 2265,
  "\u2581eggs": 2266,
  "\u2581pink": 2267,
  "held": 2268,
  "ip": 2269,
  "\u2581billy": 2270,
  "\u2581l": 2271,
  "\u2581somehow": 2272,
  "\u2581unconscious": 2273,
  "\u2581continual": 2274,
  "\u2581tis": 2275,
  "\u2581bishop": 2276,
  "\u2581connection": 2277,
  "\u2581lawyer": 2278,
  "\u2581heavi": 2279,
  "\u2581rage": 2280,
  "\u2581ra": 2281,
  "\u2581develop": 2282,
  "\u2581supply": 2283,
  "\u2581joe": 2284,
  "ud": 2285,
  "\u2581painful": 2286,
  "ford": 2287,
  "gi": 2288,
  "\u2581process": 2289,
  "\u2581jesu": 2290,
  "\u2581points": 2291,
  "\u2581n": 2292,
  "\u2581christmas": 2293,
  "\u2581relation": 2294,
  "\u2581scatter": 2295,
  "\u2581crew": 2296,
  "\u2581dash": 2297,
  "ile": 2298,
  "\u2581centre": 2299,
  "\u2581ideal": 2300,
  "\u2581apart": 2301,
  "\u2581throne": 2302,
  "\u2581dirt": 2303,
  "\u2581den": 2304,
  "\u2581bra": 2305,
  "\u2581scar": 2306,
  "os": 2307,
  "\u2581branche": 2308,
  "\u2581fled": 2309,
  "\u2581exhaust": 2310,
  "\u2581reveal": 2311,
  "\u2581adopt": 2312,
  "\u2581merry": 2313,
  "\u2581thanks": 2314,
  "\u2581escap": 2315,
  "\u2581sylvia": 2316,
  "\u2581mis": 2317,
  "\u2581misfortune": 2318,
  "\u2581feast": 2319,
  "\u2581convinc": 2320,
  "\u2581fa": 2321,
  "\u2581shak": 2322,
  "\u2581fetch": 2323,
  "\u2581hast": 2324,
  "\u2581setting": 2325,
  "\u2581rear": 2326,
  "\u2581fought": 2327,
  "\u2581dragg": 2328,
  "\u2581cor": 2329,
  "\u2581attract": 2330,
  "\u2581mercy": 2331,
  "\u2581source": 2332,
  "\u2581haste": 2333,
  "\u2581rag": 2334,
  "iness": 2335,
  "\u2581robin": 2336,
  "\u2581delightful": 2337,
  "\u2581attitude": 2338,
  "\u2581council": 2339,
  "\u2581patience": 2340,
  "\u2581quantit": 2341,
  "ach": 2342,
  "\u2581victory": 2343,
  "mber": 2344,
  "\u2581title": 2345,
  "\u2581concerned": 2346,
  "\u2581baron": 2347,
  "\u2581triumph": 2348,
  "\u2581defend": 2349,
  "\u2581describ": 2350,
  "\u2581describe": 2351,
  "liness": 2352,
  "\u2581forehead": 2353,
  "\u2581sex": 2354,
  "\u2581dared": 2355,
  "\u2581encounter": 2356,
  "\u2581hint": 2357,
  "\u2581sank": 2358,
  "\u2581hit": 2359,
  "\u2581writer": 2360,
  "\u2581older": 2361,
  "\u2581ser": 2362,
  "\u2581dan": 2363,
  "\u2581returning": 2364,
  "\u2581entertain": 2365,
  "\u2581giant": 2366,
  "\u2581halt": 2367,
  "\u2581national": 2368,
  "\u2581troops": 2369,
  "\u2581ain": 2370,
  "\u2581grim": 2371,
  "\u2581pig": 2372,
  "\u2581flag": 2373,
  "our": 2374,
  "\u2581beard": 2375,
  "\u2581positive": 2376,
  "\u2581loving": 2377,
  "\u2581pi": 2378,
  "\u2581sam": 2379,
  "\u2581comp": 2380,
  "\u2581college": 2381,
  "he": 2382,
  "\u2581fun": 2383,
  "\u2581ow": 2384,
  "\u2581mortal": 2385,
  "\u2581boots": 2386,
  "\u2581clock": 2387,
  "\u2581fasten": 2388,
  "\u2581ob": 2389,
  "\u2581distinguished": 2390,
  "\u2581propos": 2391,
  "\u2581waters": 2392,
  "\u2581guilty": 2393,
  "\u2581soil": 2394,
  "\u2581inter": 2395,
  "\u2581thoughtful": 2396,
  "\u2581u": 2397,
  "ner": 2398,
  "\u2581estate": 2399,
  "\u2581stupid": 2400,
  "\u2581relative": 2401,
  "\u2581relations": 2402,
  "ors": 2403,
  "\u2581permitt": 2404,
  "\u2581robert": 2405,
  "\u2581accompanie": 2406,
  "\u2581bride": 2407,
  "\u2581venture": 2408,
  "loud": 2409,
  "\u2581admiration": 2410,
  "\u2581melanchol": 2411,
  "\u2581fourteen": 2412,
  "\u2581shone": 2413,
  "\u2581smok": 2414,
  "\u2581duti": 2415,
  "\u2581fleet": 2416,
  "\u2581volume": 2417,
  "\u2581dancing": 2418,
  "\u2581greek": 2419,
  "\u2581discovery": 2420,
  "\u2581magic": 2421,
  "\u2581sheet": 2422,
  "\u2581da": 2423,
  "\u2581quarrel": 2424,
  "\u2581magnificent": 2425,
  "upon": 2426,
  "ric": 2427,
  "\u2581attach": 2428,
  "\u2581incident": 2429,
  "\u2581recent": 2430,
  "\u2581build": 2431,
  "\u2581arrangement": 2432,
  "\u2581assist": 2433,
  "\u2581heel": 2434,
  "ide": 2435,
  "\u2581brow": 2436,
  "\u2581widow": 2437,
  "\u2581market": 2438,
  "\u2581bark": 2439,
  "\u2581desperate": 2440,
  "\u2581che": 2441,
  "\u2581divid": 2442,
  "\u2581current": 2443,
  "\u2581precise": 2444,
  "\u2581spoil": 2445,
  "\u2581wisdom": 2446,
  "\u2581wooden": 2447,
  "\u2581wretched": 2448,
  "\u2581ru": 2449,
  "\u2581obvious": 2450,
  "\u2581sensible": 2451,
  "ius": 2452,
  "\u2581shake": 2453,
  "\u2581recogniz": 2454,
  "\u2581resist": 2455,
  "\u2581inhabitant": 2456,
  "\u2581useless": 2457,
  "\u2581admire": 2458,
  "\u2581bade": 2459,
  "\u2581arrest": 2460,
  "\u2581poison": 2461,
  "\u2581preserv": 2462,
  "\u2581alter": 2463,
  "\u2581swallow": 2464,
  "\u2581block": 2465,
  "\u2581ninety": 2466,
  "\u2581wa": 2467,
  "\u2581range": 2468,
  "\u2581readi": 2469,
  "\u2581pine": 2470,
  "\u2581interval": 2471,
  "ians": 2472,
  "\u2581fad": 2473,
  "\u2581worship": 2474,
  "\u2581lamb": 2475,
  "\u2581provision": 2476,
  "\u2581striking": 2477,
  "ress": 2478,
  "ized": 2479,
  "\u2581burden": 2480,
  "\u2581departure": 2481,
  "worth": 2482,
  "\u2581trick": 2483,
  "\u2581credit": 2484,
  "\u2581park": 2485,
  "\u2581mid": 2486,
  "\u2581meadow": 2487,
  "\u2581sacred": 2488,
  "\u2581solid": 2489,
  "\u2581reduc": 2490,
  "\u2581limb": 2491,
  "\u2581lucy": 2492,
  "\u2581becomes": 2493,
  "\u2581realiz": 2494,
  "\u2581intense": 2495,
  "\u2581flush": 2496,
  "\u2581powder": 2497,
  "\u2581fix": 2498,
  "\u2581retir": 2499,
  "\u2581british": 2500,
  "\u2581everyone": 2501,
  "\u2581agreeable": 2502,
  "\u2581voyage": 2503,
  "\u2581southern": 2504,
  "\u2581bosom": 2505,
  "\u2581hearts": 2506,
  "\u2581awaken": 2507,
  "\u2581feed": 2508,
  "\u2581appli": 2509,
  "\u2581essential": 2510,
  "\u2581household": 2511,
  "\u2581project": 2512,
  "\u2581acquaint": 2513,
  "\u2581experiment": 2514,
  "\u2581joseph": 2515,
  "\u2581mystery": 2516,
  "\u2581wedding": 2517,
  "\u2581curtain": 2518,
  "\u2581intellect": 2519,
  "\u2581seal": 2520,
  "tan": 2521,
  "\u2581deed": 2522,
  "\u2581punish": 2523,
  "\u2581instinct": 2524,
  "\u2581drift": 2525,
  "\u2581wire": 2526,
  "\u2581bas": 2527,
  "\u2581resolution": 2528,
  "\u2581owner": 2529,
  "\u2581preparation": 2530,
  "\u2581rude": 2531,
  "\u2581mac": 2532,
  "\u2581introduc": 2533,
  "\u2581chin": 2534,
  "\u2581curl": 2535,
  "\u2581victim": 2536,
  "\u2581mode": 2537,
  "\u2581flood": 2538,
  "\u2581julia": 2539,
  "\u2581summon": 2540,
  "\u2581fellows": 2541,
  "za": 2542,
  "\u2581anna": 2543,
  "\u2581humble": 2544,
  "\u2581lodge": 2545,
  "\u2581teacher": 2546,
  "\u2581fatal": 2547,
  "\u2581awake": 2548,
  "\u2581relat": 2549,
  "\u2581unexpected": 2550,
  "\u2581prize": 2551,
  "\u2581confusion": 2552,
  "\u2581test": 2553,
  "\u2581wondering": 2554,
  "\u2581mingl": 2555,
  "\u2581pe": 2556,
  "\u2581careless": 2557,
  "\u2581committ": 2558,
  "\u2581oil": 2559,
  "\u2581catherine": 2560,
  "\u2581parliament": 2561,
  "\u2581profound": 2562,
  "\u2581mor": 2563,
  "\u2581constitution": 2564,
  "\u2581sovereign": 2565,
  "\u2581singular": 2566,
  "\u2581echo": 2567,
  "\u2581assistance": 2568,
  "\u2581gown": 2569,
  "\u2581showing": 2570,
  "\u2581pictures": 2571,
  "\u2581verse": 2572,
  "\u2581strict": 2573,
  "\u2581steel": 2574,
  "ub": 2575,
  "\u2581punishment": 2576,
  "\u2581notes": 2577,
  "ium": 2578,
  "\u2581mistaken": 2579,
  "\u2581gesture": 2580,
  "\u2581earlie": 2581,
  "qui": 2582,
  "\u2581consequent": 2583,
  "\u2581sugar": 2584,
  "\u2581saddle": 2585,
  "\u2581scrap": 2586,
  "\u2581amuse": 2587,
  "\u2581rubb": 2588,
  "\u2581cre": 2589,
  "\u2581steal": 2590,
  "ett": 2591,
  "\u2581struggl": 2592,
  "\u2581rous": 2593,
  "\u2581impatient": 2594,
  "\u2581embrace": 2595,
  "\u2581disease": 2596,
  "\u2581preced": 2597,
  "\u2581conclud": 2598,
  "\u2581log": 2599,
  "\u2581trap": 2600,
  "\u2581domestic": 2601,
  "\u2581genius": 2602,
  "\u2581veil": 2603,
  "\u2581agent": 2604,
  "\u2581manag": 2605,
  "\u2581tent": 2606,
  "\u2581compell": 2607,
  "\u2581affected": 2608,
  "\u2581reign": 2609,
  "\u2581description": 2610,
  "\u2581darling": 2611,
  "\u2581composed": 2612,
  "\u2581pole": 2613,
  "\u2581enormous": 2614,
  "\u2581tu": 2615,
  "\u2581attain": 2616,
  "\u2581steadi": 2617,
  "\u2581sc": 2618,
  "\u2581leaning": 2619,
  "ating": 2620,
  "\u2581kate": 2621,
  "\u2581ere": 2622,
  "\u2581owe": 2623,
  "\u2581intimate": 2624,
  "\u2581countess": 2625,
  "\u2581perceive": 2626,
  "\u2581sh": 2627,
  "\u2581handkerchief": 2628,
  "\u2581problem": 2629,
  "\u2581midnight": 2630,
  "\u2581crush": 2631,
  "\u2581stir": 2632,
  "ars": 2633,
  "\u2581discuss": 2634,
  "\u2581objection": 2635,
  "\u2581cock": 2636,
  "\u2581folk": 2637,
  "\u2581works": 2638,
  "\u2581sole": 2639,
  "\u2581drown": 2640,
  "\u2581official": 2641,
  "\u2581scheme": 2642,
  "\u2581pierre": 2643,
  "\u2581assure": 2644,
  "\u2581cu": 2645,
  "ris": 2646,
  "\u2581adventure": 2647,
  "\u2581hi": 2648,
  "\u2581stroke": 2649,
  "ative": 2650,
  "\u2581devoted": 2651,
  "ze": 2652,
  "\u2581bush": 2653,
  "\u2581intellectual": 2654,
  "\u2581carpet": 2655,
  "\u2581connected": 2656,
  "\u2581roar": 2657,
  "\u2581negro": 2658,
  "\u2581retain": 2659,
  "\u2581ascend": 2660,
  "\u2581garment": 2661,
  "\u2581col": 2662,
  "rid": 2663,
  "\u2581ignorant": 2664,
  "\u2581stable": 2665,
  "\u2581includ": 2666,
  "ina": 2667,
  "\u2581coffee": 2668,
  "\u2581nonsens": 2669,
  "uc": 2670,
  "\u2581notion": 2671,
  "\u2581younger": 2672,
  "\u2581bless": 2673,
  "\u2581declare": 2674,
  "abilit": 2675,
  "\u2581generous": 2676,
  "\u2581merit": 2677,
  "\u2581plunge": 2678,
  "\u2581job": 2679,
  "\u2581suggestion": 2680,
  "und": 2681,
  "\u2581assum": 2682,
  "\u2581trunk": 2683,
  "\u2581doubtless": 2684,
  "fe": 2685,
  "\u2581hunter": 2686,
  "\u2581sport": 2687,
  "\u2581fearful": 2688,
  "\u2581cease": 2689,
  "\u2581wake": 2690,
  "\u2581modest": 2691,
  "\u2581assert": 2692,
  "\u2581privilege": 2693,
  "\u2581craft": 2694,
  "ill": 2695,
  "\u2581supplie": 2696,
  "gratitude": 2697,
  "\u2581button": 2698,
  "hood": 2699,
  "\u2581endeavour": 2700,
  "\u2581gu": 2701,
  "\u2581feared": 2702,
  "\u2581arrive": 2703,
  "\u2581shoot": 2704,
  "\u2581si": 2705,
  "\u2581absorb": 2706,
  "\u2581empire": 2707,
  "\u2581expedition": 2708,
  "\u2581erect": 2709,
  "\u2581offend": 2710,
  "\u2581driv": 2711,
  "\u2581candle": 2712,
  "\u2581destin": 2713,
  "\u2581thirst": 2714,
  "\u2581wagon": 2715,
  "\u2581contract": 2716,
  "\u2581hay": 2717,
  "\u2581witch": 2718,
  "\u2581tad": 2719,
  "\u2581atmosphere": 2720,
  "\u2581torn": 2721,
  "\u2581pitch": 2722,
  "\u2581stands": 2723,
  "\u2581prevail": 2724,
  "\u2581clasp": 2725,
  "cur": 2726,
  "up": 2727,
  "\u2581eternal": 2728,
  "\u2581neglect": 2729,
  "\u2581creep": 2730,
  "\u2581squire": 2731,
  "\u2581electric": 2732,
  "\u2581katy": 2733,
  "sses": 2734,
  "\u2581expense": 2735,
  "\u2581possibilit": 2736,
  "\u2581hu": 2737,
  "\u2581stout": 2738,
  "\u2581bushe": 2739,
  "\u2581palm": 2740,
  "ker": 2741,
  "\u2581district": 2742,
  "\u2581leaf": 2743,
  "\u2581puzzl": 2744,
  "\u2581jean": 2745,
  "\u2581failure": 2746,
  "\u2581bid": 2747,
  "\u2581expos": 2748,
  "\u2581numerous": 2749,
  "\u2581june": 2750,
  "\u2581hunger": 2751,
  "\u2581threaten": 2752,
  "\u2581polite": 2753,
  "\u2581librar": 2754,
  "\u2581mud": 2755,
  "work": 2756,
  "\u2581traveller": 2757,
  "\u2581crep": 2758,
  "\u2581metal": 2759,
  "\u2581richard": 2760,
  "\u2581sore": 2761,
  "\u2581tie": 2762,
  "\u2581knights": 2763,
  "\u2581complain": 2764,
  "ak": 2765,
  "\u2581th": 2766,
  "\u2581mus": 2767,
  "\u2581mirror": 2768,
  "\u2581disposition": 2769,
  "\u2581loft": 2770,
  "\u2581anywhere": 2771,
  "lan": 2772,
  "\u2581pretend": 2773,
  "\u2581settle": 2774,
  "\u2581monte": 2775,
  "\u2581protection": 2776,
  "\u2581invited": 2777,
  "\u2581fro": 2778,
  "\u2581benefit": 2779,
  "\u2581thomas": 2780,
  "\u2581earn": 2781,
  "\u2581strip": 2782,
  "\u2581clerk": 2783,
  "\u2581drunk": 2784,
  "\u2581maybe": 2785,
  "\u2581buck": 2786,
  "\u2581uniform": 2787,
  "\u2581generation": 2788,
  "\u2581groan": 2789,
  "\u2581idle": 2790,
  "\u2581bench": 2791,
  "\u2581warning": 2792,
  "\u2581western": 2793,
  "\u2581score": 2794,
  "\u2581guns": 2795,
  "\u2581urg": 2796,
  "mar": 2797,
  "\u2581leisure": 2798,
  "\u2581lieutenant": 2799,
  "\u2581violence": 2800,
  "\u2581monster": 2801,
  "\u2581sons": 2802,
  "\u2581ceremon": 2803,
  "\u2581steam": 2804,
  "\u2581twist": 2805,
  "ran": 2806,
  "\u2581gas": 2807,
  "\u2581dri": 2808,
  "\u2581condemn": 2809,
  "\u2581ornament": 2810,
  "\u2581counsel": 2811,
  "\u2581horn": 2812,
  "\u2581bones": 2813,
  "\u2581robber": 2814,
  "\u2581andrew": 2815,
  "\u2581variet": 2816,
  "\u2581banks": 2817,
  "\u2581dart": 2818,
  "\u2581studie": 2819,
  "\u2581statement": 2820,
  "\u2581stoop": 2821,
  "\u2581northern": 2822,
  "\u2581fl": 2823,
  "ney": 2824,
  "\u2581hospital": 2825,
  "\u2581local": 2826,
  "\u2581rent": 2827,
  "\u2581prefer": 2828,
  "house": 2829,
  "\u2581isabel": 2830,
  "\u2581nerve": 2831,
  "\u2581bloom": 2832,
  "\u2581wandering": 2833,
  "\u2581din": 2834,
  "\u2581tip": 2835,
  "\u2581flatter": 2836,
  "\u2581madam": 2837,
  "\u2581dig": 2838,
  "\u2581ambition": 2839,
  "\u2581monk": 2840,
  "\u2581rail": 2841,
  "\u2581cab": 2842,
  "\u2581consult": 2843,
  "\u2581noon": 2844,
  "\u2581regiment": 2845,
  "\u2581spell": 2846,
  "\u2581furious": 2847,
  "\u2581deny": 2848,
  "\u2581rabbit": 2849,
  "ified": 2850,
  "\u2581bestow": 2851,
  "\u2581plead": 2852,
  "\u2581ralph": 2853,
  "\u2581thread": 2854,
  "\u2581mal": 2855,
  "\u2581amid": 2856,
  "\u2581factor": 2857,
  "\u2581straw": 2858,
  "her": 2859,
  "\u2581commenc": 2860,
  "\u2581mankind": 2861,
  "\u2581cattle": 2862,
  "\u2581tide": 2863,
  "\u2581sha": 2864,
  "\u2581exceeding": 2865,
  "\u2581exhibit": 2866,
  "hor": 2867,
  "\u2581slip": 2868,
  "\u2581coal": 2869,
  "\u2581convey": 2870,
  "\u2581valuable": 2871,
  "\u2581endure": 2872,
  "\u2581supreme": 2873,
  "\u2581date": 2874,
  "\u2581province": 2875,
  "\u2581grateful": 2876,
  "\u2581spiritual": 2877,
  "\u2581haunt": 2878,
  "\u2581diana": 2879,
  "we": 2880,
  "\u2581dragon": 2881,
  "\u2581fo": 2882,
  "\u2581ruth": 2883,
  "\u2581china": 2884,
  "\u2581gasp": 2885,
  "tuck": 2886,
  "\u2581wet": 2887,
  "\u2581rays": 2888,
  "gan": 2889,
  "\u2581pearl": 2890,
  "mon": 2891,
  "\u2581gather": 2892,
  "\u2581glow": 2893,
  "\u2581thirteen": 2894,
  "\u2581rod": 2895,
  "\u2581intent": 2896,
  "\u2581development": 2897,
  "\u2581forces": 2898,
  "\u2581interview": 2899,
  "\u2581spectacle": 2900,
  "\u2581brook": 2901,
  "\u2581neat": 2902,
  "\u2581pu": 2903,
  "broad": 2904,
  "\u2581weakness": 2905,
  "\u2581total": 2906,
  "\u2581audience": 2907,
  "\u2581aspect": 2908,
  "\u2581insult": 2909,
  "\u2581disappointment": 2910,
  "\u2581startle": 2911,
  "\u2581feather": 2912,
  "\u2581assembl": 2913,
  "\u2581esteem": 2914,
  "\u2581invitation": 2915,
  "\u2581passenger": 2916,
  "\u2581publish": 2917,
  "\u2581irish": 2918,
  "\u2581desk": 2919,
  "ung": 2920,
  "\u2581male": 2921,
  "val": 2922,
  "\u2581quarters": 2923,
  "\u2581beaten": 2924,
  "\u2581arise": 2925,
  "\u2581august": 2926,
  "\u2581impulse": 2927,
  "\u2581purple": 2928,
  "\u2581swear": 2929,
  "\u2581eaten": 2930,
  "\u2581fifth": 2931,
  "\u2581fever": 2932,
  "\u2581com": 2933,
  "\u2581countrie": 2934,
  "\u2581revolution": 2935,
  "\u2581pal": 2936,
  "\u2581celebrat": 2937,
  "\u2581grandmother": 2938,
  "\u2581shudder": 2939,
  "\u2581sunshine": 2940,
  "\u2581artist": 2941,
  "\u2581ko": 2942,
  "\u2581inspir": 2943,
  "\u2581abrupt": 2944,
  "\u2581snake": 2945,
  "\u2581te": 2946,
  "\u2581marilla": 2947,
  "\u2581marble": 2948,
  "\u2581walter": 2949,
  "\u2581list": 2950,
  "\u2581tend": 2951,
  "\u2581cultivat": 2952,
  "\u2581furniture": 2953,
  "\u2581steady": 2954,
  "\u2581melt": 2955,
  "\u2581chase": 2956,
  "\u2581error": 2957,
  "\u2581blessing": 2958,
  "\u2581conviction": 2959,
  "\u2581doll": 2960,
  "\u2581bi": 2961,
  "\u2581helpless": 2962,
  "\u2581mild": 2963,
  "\u2581medicine": 2964,
  "\u2581italian": 2965,
  "\u2581novel": 2966,
  "withstand": 2967,
  "\u2581mourn": 2968,
  "\u2581independent": 2969,
  "\u2581oliver": 2970,
  "\u2581barn": 2971,
  "\u2581dwell": 2972,
  "\u2581belov": 2973,
  "\u2581physician": 2974,
  "\u2581florence": 2975,
  "\u2581mouse": 2976,
  "\u2581poem": 2977,
  "\u2581permit": 2978,
  "\u2581fri": 2979,
  "\u2581branch": 2980,
  "\u2581bal": 2981,
  "\u2581destruction": 2982,
  "\u2581messenger": 2983,
  "\u2581tristram": 2984,
  "\u2581chill": 2985,
  "\u2581select": 2986,
  "\u2581virginia": 2987,
  "\u2581issue": 2988,
  "\u2581thornton": 2989,
  "\u2581lightning": 2990,
  "\u2581backward": 2991,
  "line": 2992,
  "\u2581plum": 2993,
  "\u2581franc": 2994,
  "\u2581deserve": 2995,
  "\u2581rifle": 2996,
  "\u2581kick": 2997,
  "\u2581fer": 2998,
  "\u2581goat": 2999,
  "\u2581conquer": 3000,
  "\u2581created": 3001,
  "\u2581accord": 3002,
  "\u2581ba": 3003,
  "\u2581leather": 3004,
  "\u2581absent": 3005,
  "\u2581multitude": 3006,
  "\u2581debt": 3007,
  "\u2581glorious": 3008,
  "\u2581borne": 3009,
  "\u2581cra": 3010,
  "\u2581cries": 3011,
  "\u2581catholic": 3012,
  "\u2581flour": 3013,
  "\u2581dangl": 3014,
  "more": 3015,
  "\u2581gleam": 3016,
  "\u2581shirt": 3017,
  "\u2581collar": 3018,
  "\u2581pursuit": 3019,
  "\u2581tight": 3020,
  "\u2581needs": 3021,
  "\u2581dearest": 3022,
  "\u2581manners": 3023,
  "\u2581tempt": 3024,
  "\u2581fi": 3025,
  "\u2581disgust": 3026,
  "\u2581sub": 3027,
  "\u2581rec": 3028,
  "\u2581silly": 3029,
  "\u2581bidd": 3030,
  "\u2581folks": 3031,
  "\u2581beach": 3032,
  "\u2581beam": 3033,
  "\u2581upward": 3034,
  "\u2581bab": 3035,
  "\u2581rachel": 3036,
  "\u2581washington": 3037,
  "\u2581engagement": 3038,
  "\u2581nail": 3039,
  "\u2581commander": 3040,
  "\u2581discussion": 3041,
  "\u2581citizens": 3042,
  "\u2581j": 3043,
  "\u2581joke": 3044,
  "\u2581polish": 3045,
  "\u2581swell": 3046,
  "\u2581absurd": 3047,
  "\u2581chris": 3048,
  "\u2581goodness": 3049,
  "\u2581bla": 3050,
  "\u2581profit": 3051,
  "\u2581lincoln": 3052,
  "\u2581student": 3053,
  "\u2581gar": 3054,
  "\u2581slope": 3055,
  "\u2581russian": 3056,
  "\u2581gates": 3057,
  "jo": 3058,
  "\u2581poverty": 3059,
  "\u2581cheese": 3060,
  "\u2581staff": 3061,
  "\u2581instruction": 3062,
  "\u2581someone": 3063,
  "\u2581memor": 3064,
  "\u2581scale": 3065,
  "\u2581entreat": 3066,
  "\u2581lunch": 3067,
  "\u2581farewell": 3068,
  "\u2581peep": 3069,
  "\u2581ph": 3070,
  "mond": 3071,
  "\u2581mari": 3072,
  "\u2581decision": 3073,
  "\u2581pistol": 3074,
  "\u2581mon": 3075,
  "\u2581louis": 3076,
  "\u2581disturbed": 3077,
  "\u2581surrounding": 3078,
  "\u2581elect": 3079,
  "\u2581tramp": 3080,
  "\u2581steep": 3081,
  "\u2581enthusiasm": 3082,
  "\u2581stain": 3083,
  "\u2581undertake": 3084,
  "\u2581definite": 3085,
  "\u2581compar": 3086,
  "oo": 3087,
  "\u2581mule": 3088,
  "\u2581facult": 3089,
  "\u2581fence": 3090,
  "\u2581committee": 3091,
  "\u2581simon": 3092,
  "\u2581agon": 3093,
  "board": 3094,
  "\u2581jest": 3095,
  "\u2581impress": 3096,
  "\u2581vice": 3097,
  "wa": 3098,
  "\u2581tomb": 3099,
  "\u2581sincere": 3100,
  "\u2581starv": 3101,
  "\u2581unpleasant": 3102,
  "\u2581frown": 3103,
  "\u2581acquir": 3104,
  "\u2581organ": 3105,
  "\u2581disappointed": 3106,
  "\u2581patch": 3107,
  "\u2581famili": 3108,
  "\u2581handle": 3109,
  "\u2581cloak": 3110,
  "\u2581humanity": 3111,
  "zi": 3112,
  "\u2581preserve": 3113,
  "\u2581occur": 3114,
  "\u2581cell": 3115,
  "\u2581shy": 3116,
  "\u2581defeat": 3117,
  "\u2581dwarf": 3118,
  "\u2581philosopher": 3119,
  "\u2581overcome": 3120,
  "ible": 3121,
  "\u2581spur": 3122,
  "\u2581kin": 3123,
  "\u2581vote": 3124,
  "\u2581gracious": 3125,
  "\u2581remote": 3126,
  "ugh": 3127,
  "\u2581sale": 3128,
  "\u2581pool": 3129,
  "\u2581fla": 3130,
  "\u2581pit": 3131,
  "har": 3132,
  "\u2581shriek": 3133,
  "\u2581toil": 3134,
  "\u2581cutting": 3135,
  "ole": 3136,
  "\u2581coward": 3137,
  "\u2581cal": 3138,
  "\u2581abilit": 3139,
  "\u2581border": 3140,
  "\u2581monkey": 3141,
  "\u2581hook": 3142,
  "\u2581lap": 3143,
  "\u2581emily": 3144,
  "\u2581flo": 3145,
  "\u2581lit": 3146,
  "\u2581pl": 3147,
  "\u2581har": 3148,
  "\u2581jar": 3149,
  "\u2581winds": 3150,
  "\u2581glimpse": 3151,
  "\u2581murderer": 3152,
  "\u2581bolt": 3153,
  "for": 3154,
  "\u2581receiv": 3155,
  "unt": 3156,
  "\u2581fitt": 3157,
  "\u2581ventur": 3158,
  "\u2581origin": 3159,
  "\u2581coach": 3160,
  "\u2581wrappe": 3161,
  "\u2581dish": 3162,
  "ug": 3163,
  "\u2581jol": 3164,
  "well": 3165,
  "\u2581ned": 3166,
  "av": 3167,
  "\u2581profession": 3168,
  "\u2581affect": 3169,
  "\u2581cunning": 3170,
  "\u2581institution": 3171,
  "\u2581eyed": 3172,
  "\u2581compliment": 3173,
  "\u2581proceeding": 3174,
  "\u2581recognize": 3175,
  "\u2581pony": 3176,
  "ington": 3177,
  "ator": 3178,
  "\u2581ke": 3179,
  "\u2581weigh": 3180,
  "\u2581teaching": 3181,
  "\u2581slid": 3182,
  "\u2581appetite": 3183,
  "\u2581reputation": 3184,
  "\u2581graceful": 3185,
  "\u2581lane": 3186,
  "\u2581breeze": 3187,
  "\u2581platform": 3188,
  "\u2581dining": 3189,
  "\u2581unre": 3190,
  "\u2581distinguish": 3191,
  "\u2581batter": 3192,
  "\u2581manifest": 3193,
  "\u2581contempt": 3194,
  "\u2581rejoin": 3195,
  "\u2581opposition": 3196,
  "\u2581boast": 3197,
  "\u2581spi": 3198,
  "\u2581distinction": 3199,
  "\u2581growth": 3200,
  "\u2581tre": 3201,
  "\u2581susan": 3202,
  "\u2581dislike": 3203,
  "\u2581frog": 3204,
  "\u2581feeble": 3205,
  "\u2581inclination": 3206,
  "\u2581prepar": 3207,
  "\u2581dressing": 3208,
  "\u2581breed": 3209,
  "\u2581elbow": 3210,
  "\u2581nicholas": 3211,
  "\u2581satisfy": 3212,
  "\u2581piano": 3213,
  "ook": 3214,
  "\u2581bri": 3215,
  "\u2581weeping": 3216,
  "\u2581indicat": 3217,
  "\u2581bon": 3218,
  "\u2581product": 3219,
  "\u2581oath": 3220,
  "\u2581channel": 3221,
  "\u2581slain": 3222,
  "\u2581spear": 3223,
  "\u2581characteristic": 3224,
  "\u2581exchange": 3225,
  "ification": 3226,
  "\u2581conception": 3227,
  "\u2581timid": 3228,
  "\u2581twin": 3229,
  "ux": 3230,
  "\u2581clay": 3231,
  "\u2581dwelling": 3232,
  "\u2581center": 3233,
  "\u2581weari": 3234,
  "\u2581causes": 3235,
  "\u2581horizon": 3236,
  "\u2581whirl": 3237,
  "\u2581dusk": 3238,
  "nce": 3239,
  "\u2581hadn": 3240,
  "bra": 3241,
  "\u2581deriv": 3242,
  "\u2581swing": 3243,
  "\u2581remove": 3244,
  "\u2581norman": 3245,
  "\u2581revenge": 3246,
  "\u2581column": 3247,
  "\u2581rival": 3248,
  "\u2581passionate": 3249,
  "fa": 3250,
  "\u2581guards": 3251,
  "\u2581rug": 3252,
  "\u2581ages": 3253,
  "wn": 3254,
  "\u2581encourage": 3255,
  "\u2581deni": 3256,
  "\u2581reproach": 3257,
  "\u2581repair": 3258,
  "\u2581thrill": 3259,
  "\u2581polly": 3260,
  "\u2581blush": 3261,
  "\u2581treatment": 3262,
  "\u2581chap": 3263,
  "\u2581nu": 3264,
  "\u2581indifferent": 3265,
  "\u2581thither": 3266,
  "\u2581pepper": 3267,
  "\u2581capacit": 3268,
  "\u2581gallant": 3269,
  "\u2581va": 3270,
  "ven": 3271,
  "\u2581recollect": 3272,
  "\u2581hell": 3273,
  "\u2581respond": 3274,
  "\u2581shield": 3275,
  "\u2581harsh": 3276,
  "ize": 3277,
  "\u2581brick": 3278,
  "\u2581realize": 3279,
  "\u2581cautious": 3280,
  "\u2581function": 3281,
  "\u2581mischief": 3282,
  "\u2581tremendous": 3283,
  "\u2581smart": 3284,
  "\u2581separat": 3285,
  "\u2581govern": 3286,
  "\u2581sultan": 3287,
  "\u2581lights": 3288,
  "\u2581cheap": 3289,
  "\u2581dismiss": 3290,
  "\u2581flock": 3291,
  "\u2581forever": 3292,
  "\u2581beating": 3293,
  "fare": 3294,
  "\u2581endeavor": 3295,
  "ese": 3296,
  "\u2581waist": 3297,
  "\u2581italy": 3298,
  "bury": 3299,
  "\u2581bowl": 3300,
  "\u2581recommend": 3301,
  "\u2581monarch": 3302,
  "\u2581accuse": 3303,
  "\u2581foe": 3304,
  "\u2581mate": 3305,
  "\u2581expectation": 3306,
  "\u2581ashe": 3307,
  "ang": 3308,
  "\u2581grove": 3309,
  "\u2581herbert": 3310,
  "\u2581stirr": 3311,
  "\u2581rejoice": 3312,
  "\u2581pillow": 3313,
  "\u2581perish": 3314,
  "how": 3315,
  "\u2581greet": 3316,
  "\u2581hopeless": 3317,
  "tted": 3318,
  "\u2581sunk": 3319,
  "\u2581bernard": 3320,
  "\u2581philosophy": 3321,
  "\u2581sway": 3322,
  "\u2581approv": 3323,
  "\u2581purchase": 3324,
  "port": 3325,
  "\u2581industr": 3326,
  "\u2581purse": 3327,
  "\u2581fountain": 3328,
  "\u2581league": 3329,
  "\u2581reference": 3330,
  "\u2581ignorance": 3331,
  "\u2581rolling": 3332,
  "\u2581duck": 3333,
  "\u2581partner": 3334,
  "ap": 3335,
  "\u2581execut": 3336,
  "\u2581unc": 3337,
  "\u2581belt": 3338,
  "\u2581confirm": 3339,
  "\u2581dun": 3340,
  "\u2581shiver": 3341,
  "\u2581prophet": 3342,
  "\u2581neighbourhood": 3343,
  "\u2581representative": 3344,
  "\u2581perch": 3345,
  "\u2581angle": 3346,
  "\u2581ram": 3347,
  "\u2581pa": 3348,
  "\u2581doctrine": 3349,
  "\u2581chimney": 3350,
  "\u2581fu": 3351,
  "rous": 3352,
  "\u2581classe": 3353,
  "\u2581belonging": 3354,
  "\u2581peasant": 3355,
  "\u2581autumn": 3356,
  "\u2581permissi": 3357,
  "\u2581cristo": 3358,
  "\u2581theatre": 3359,
  "\u2581fed": 3360,
  "tting": 3361,
  "\u2581grain": 3362,
  "\u2581freely": 3363,
  "ja": 3364,
  "\u2581compos": 3365,
  "\u2581decide": 3366,
  "\u2581crawl": 3367,
  "\u2581bewilder": 3368,
  "\u2581continent": 3369,
  "\u2581occupation": 3370,
  "\u2581retort": 3371,
  "\u2581vigorous": 3372,
  "\u2581hatred": 3373,
  "\u2581communication": 3374,
  "\u2581comment": 3375,
  "\u2581confused": 3376,
  "\u2581prey": 3377,
  "\u2581easi": 3378,
  "\u2581cliff": 3379,
  "\u2581motionless": 3380,
  "\u2581nan": 3381,
  "\u2581community": 3382,
  "\u2581criminal": 3383,
  "\u2581scientific": 3384,
  "\u2581shift": 3385,
  "\u2581vivid": 3386,
  "\u2581duchess": 3387,
  "\u2581avail": 3388,
  "\u2581inner": 3389,
  "\u2581johnson": 3390,
  "ea": 3391,
  "\u2581damp": 3392,
  "\u2581fog": 3393,
  "han": 3394,
  "\u2581examine": 3395,
  "ied": 3396,
  "\u2581slender": 3397,
  "\u2581contrast": 3398,
  "\u2581amusement": 3399,
  "\u2581dale": 3400,
  "\u2581plot": 3401,
  "\u2581sparkl": 3402,
  "\u2581snatch": 3403,
  "\u2581uncertain": 3404,
  "\u2581association": 3405,
  "\u2581pressure": 3406,
  "\u2581secur": 3407,
  "\u2581apply": 3408,
  "\u2581whip": 3409,
  "\u2581restless": 3410,
  "\u2581ci": 3411,
  "\u2581toby": 3412,
  "\u2581phrase": 3413,
  "\u2581planet": 3414,
  "\u2581rules": 3415,
  "\u2581attendant": 3416,
  "lt": 3417,
  "\u2581enjoyment": 3418,
  "\u2581pretended": 3419,
  "\u2581barr": 3420,
  "\u2581naked": 3421,
  "\u2581talent": 3422,
  "\u2581albert": 3423,
  "\u2581cake": 3424,
  "\u2581worry": 3425,
  "\u2581doubtful": 3426,
  "\u2581assume": 3427,
  "\u2581oppos": 3428,
  "\u2581torture": 3429,
  "\u2581cro": 3430,
  "ash": 3431,
  "\u2581deliberate": 3432,
  "\u2581intelligent": 3433,
  "\u2581pupil": 3434,
  "\u2581sensitive": 3435,
  "\u2581yonder": 3436,
  "\u2581frightful": 3437,
  "\u2581standard": 3438,
  "\u2581magistrate": 3439,
  "\u2581shepherd": 3440,
  "\u2581stomach": 3441,
  "\u2581venge": 3442,
  "\u2581renew": 3443,
  "\u2581honey": 3444,
  "set": 3445,
  "\u2581disturb": 3446,
  "ria": 3447,
  "\u2581br": 3448,
  "\u2581keeper": 3449,
  "\u2581portrait": 3450,
  "\u2581favorite": 3451,
  "\u2581cream": 3452,
  "\u2581brand": 3453,
  "\u2581ger": 3454,
  "\u2581hol": 3455,
  "\u2581ceter": 3456,
  "\u2581secretary": 3457,
  "\u2581gathering": 3458,
  "\u2581yell": 3459,
  "\u2581shooting": 3460,
  "\u2581whit": 3461,
  "\u2581humour": 3462,
  "\u2581activity": 3463,
  "\u2581deposit": 3464,
  "\u2581external": 3465,
  "\u2581shouldn": 3466,
  "\u2581hind": 3467,
  "\u2581doom": 3468,
  "\u2581crow": 3469,
  "\u2581ble": 3470,
  "\u2581lodging": 3471,
  "\u2581puff": 3472,
  "\u2581pope": 3473,
  "\u2581examination": 3474,
  "\u2581egg": 3475,
  "\u2581persuad": 3476,
  "\u2581tenderness": 3477,
  "\u2581fired": 3478,
  "\u2581porthos": 3479,
  "\u2581anchor": 3480,
  "\u2581sew": 3481,
  "\u2581snapp": 3482,
  "\u2581arab": 3483,
  "ette": 3484,
  "nda": 3485,
  "\u2581japan": 3486,
  "\u2581perpetual": 3487,
  "ya": 3488,
  "\u2581driver": 3489,
  "ex": 3490,
  "\u2581exception": 3491,
  "\u2581scholar": 3492,
  "\u2581scotland": 3493,
  "\u2581wrath": 3494,
  "\u2581wreck": 3495,
  "\u2581suppress": 3496,
  "\u2581net": 3497,
  "\u2581perfection": 3498,
  "\u2581seize": 3499,
  "\u2581mat": 3500,
  "\u2581doorway": 3501,
  "\u2581del": 3502,
  "and": 3503,
  "\u2581pur": 3504,
  "\u2581rep": 3505,
  "\u2581blessed": 3506,
  "\u2581territor": 3507,
  "\u2581tradition": 3508,
  "\u2581touching": 3509,
  "gu": 3510,
  "\u2581section": 3511,
  "\u2581vo": 3512,
  "\u2581eastern": 3513,
  "\u2581starting": 3514,
  "\u2581fan": 3515,
  "\u2581pointing": 3516,
  "\u2581uneas": 3517,
  "\u2581porter": 3518,
  "\u2581lily": 3519,
  "\u2581egypt": 3520,
  "\u2581scratch": 3521,
  "\u2581central": 3522,
  "\u2581solitar": 3523,
  "\u2581glove": 3524,
  "\u2581wax": 3525,
  "\u2581india": 3526,
  "\u2581wal": 3527,
  "\u2581wi": 3528,
  "\u2581propose": 3529,
  "tra": 3530,
  "\u2581accompany": 3531,
  "\u2581increasing": 3532,
  "\u2581liberal": 3533,
  "\u2581orange": 3534,
  "\u2581hail": 3535,
  "\u2581gen": 3536,
  "\u2581commission": 3537,
  "\u2581persist": 3538,
  "chi": 3539,
  "\u2581literature": 3540,
  "\u2581withdraw": 3541,
  "\u2581whither": 3542,
  "\u2581needle": 3543,
  "\u2581moonlight": 3544,
  "\u2581por": 3545,
  "\u2581prepare": 3546,
  "\u2581ray": 3547,
  "\u2581amaze": 3548,
  "\u2581harmon": 3549,
  "\u2581enable": 3550,
  "\u2581sink": 3551,
  "\u2581reasonable": 3552,
  "tro": 3553,
  "\u2581detective": 3554,
  "\u2581galler": 3555,
  "\u2581boats": 3556,
  "\u2581wage": 3557,
  "\u2581dutch": 3558,
  "\u2581scent": 3559,
  "\u2581francis": 3560,
  "\u2581restor": 3561,
  "\u2581addition": 3562,
  "\u2581ann": 3563,
  "\u2581napoleon": 3564,
  "\u2581cardinal": 3565,
  "\u2581fowl": 3566,
  "\u2581inch": 3567,
  "\u2581blew": 3568,
  "\u2581torment": 3569,
  "\u2581childhood": 3570,
  "\u2581sober": 3571,
  "ib": 3572,
  "\u2581div": 3573,
  "\u2581arrow": 3574,
  "\u2581rein": 3575,
  "\u2581comrade": 3576,
  "\u2581engineer": 3577,
  "\u2581disgrace": 3578,
  "\u2581cord": 3579,
  "\u2581career": 3580,
  "\u2581legal": 3581,
  "\u2581grat": 3582,
  "\u2581vari": 3583,
  "\u2581weep": 3584,
  "\u2581kid": 3585,
  "\u2581rub": 3586,
  "\u2581blank": 3587,
  "\u2581folly": 3588,
  "\u2581fra": 3589,
  "\u2581improv": 3590,
  "\u2581bat": 3591,
  "\u2581paw": 3592,
  "\u2581ward": 3593,
  "\u2581growl": 3594,
  "uff": 3595,
  "oon": 3596,
  "\u2581hush": 3597,
  "\u2581bedroom": 3598,
  "\u2581trot": 3599,
  "\u2581tra": 3600,
  "shire": 3601,
  "\u2581linen": 3602,
  "\u2581foundation": 3603,
  "\u2581tax": 3604,
  "woke": 3605,
  "\u2581politic": 3606,
  "\u2581wiv": 3607,
  "\u2581mail": 3608,
  "ko": 3609,
  "\u2581contriv": 3610,
  "\u2581scorn": 3611,
  "\u2581awkward": 3612,
  "\u2581saturday": 3613,
  "\u2581outward": 3614,
  "\u2581genuine": 3615,
  "\u2581blo": 3616,
  "\u2581skirt": 3617,
  "\u2581affectionate": 3618,
  "\u2581ben": 3619,
  "\u2581fame": 3620,
  "\u2581deceiv": 3621,
  "\u2581necessari": 3622,
  "\u2581eagle": 3623,
  "\u2581mutual": 3624,
  "\u2581anyway": 3625,
  "\u2581improvement": 3626,
  "\u2581plann": 3627,
  "\u2581curve": 3628,
  "\u2581preach": 3629,
  "\u2581swor": 3630,
  "\u2581moss": 3631,
  "\u2581outline": 3632,
  "\u2581income": 3633,
  "\u2581bind": 3634,
  "\u2581differ": 3635,
  "\u2581sleeve": 3636,
  "\u2581solitude": 3637,
  "\u2581favourite": 3638,
  "day": 3639,
  "\u2581axe": 3640,
  "\u2581germany": 3641,
  "\u2581raising": 3642,
  "\u2581detect": 3643,
  "\u2581comprehend": 3644,
  "\u2581serpent": 3645,
  "\u2581summit": 3646,
  "\u2581knot": 3647,
  "\u2581copy": 3648,
  "\u2581hideous": 3649,
  "\u2581guid": 3650,
  "\u2581woe": 3651,
  "\u2581cl": 3652,
  "\u2581wilt": 3653,
  "\u2581mont": 3654,
  "\u2581wel": 3655,
  "\u2581char": 3656,
  "\u2581offering": 3657,
  "\u2581eve": 3658,
  "\u2581conflict": 3659,
  "\u2581refuge": 3660,
  "\u2581bundle": 3661,
  "\u2581proposition": 3662,
  "\u2581mask": 3663,
  "\u2581slavery": 3664,
  "\u2581hare": 3665,
  "\u2581rescue": 3666,
  "\u2581alyosha": 3667,
  "\u2581ladder": 3668,
  "right": 3669,
  "\u2581department": 3670,
  "\u2581lace": 3671,
  "\u2581desires": 3672,
  "\u2581vein": 3673,
  "\u2581comb": 3674,
  "\u2581pat": 3675,
  "\u2581shouting": 3676,
  "\u2581invent": 3677,
  "\u2581enterprise": 3678,
  "rie": 3679,
  "\u2581louise": 3680,
  "\u2581restrain": 3681,
  "\u2581views": 3682,
  "\u2581warriors": 3683,
  "\u2581sca": 3684,
  "\u2581gallop": 3685,
  "\u2581scarlet": 3686,
  "\u2581kitty": 3687,
  "\u2581outer": 3688,
  "\u2581bone": 3689,
  "ries": 3690,
  "\u2581arouse": 3691,
  "\u2581luxur": 3692,
  "\u2581congress": 3693,
  "\u2581surrender": 3694,
  "\u2581sustain": 3695,
  "\u2581twilight": 3696,
  "\u2581ireland": 3697,
  "\u2581funny": 3698,
  "\u2581masse": 3699,
  "\u2581respectful": 3700,
  "\u2581preferr": 3701,
  "\u2581lend": 3702,
  "lock": 3703,
  "lia": 3704,
  "\u2581funeral": 3705,
  "\u2581spain": 3706,
  "\u2581citizen": 3707,
  "\u2581damn": 3708,
  "\u2581apolog": 3709,
  "\u2581sweep": 3710,
  "\u2581ge": 3711,
  "\u2581prejudice": 3712,
  "\u2581civilization": 3713,
  "\u2581assistant": 3714,
  "\u2581gi": 3715,
  "\u2581authorit": 3716,
  "bar": 3717,
  "\u2581fashioned": 3718,
  "\u2581porch": 3719,
  "\u2581defence": 3720,
  "\u2581referr": 3721,
  "cut": 3722,
  "\u2581securit": 3723,
  "\u2581marks": 3724,
  "\u2581sob": 3725,
  "\u2581acting": 3726,
  "\u2581marguerite": 3727,
  "\u2581miracle": 3728,
  "\u2581pulling": 3729,
  "\u2581fatigue": 3730,
  "\u2581pond": 3731,
  "ignation": 3732,
  "\u2581unlike": 3733,
  "\u2581hop": 3734,
  "\u2581beggar": 3735,
  "\u2581epi": 3736,
  "\u2581coloni": 3737,
  "acy": 3738,
  "gue": 3739,
  "\u2581kit": 3740,
  "\u2581merri": 3741,
  "\u2581fragment": 3742,
  "\u2581natasha": 3743,
  "\u2581roast": 3744,
  "\u2581repose": 3745,
  "\u2581sofa": 3746,
  "\u2581satisfactor": 3747,
  "\u2581acknowledge": 3748,
  "\u2581crossing": 3749,
  "\u2581proposal": 3750,
  "\u2581assent": 3751,
  "\u2581cove": 3752,
  "\u2581cats": 3753,
  "\u2581una": 3754,
  "\u2581enchant": 3755,
  "\u2581resource": 3756,
  "\u2581population": 3757,
  "\u2581quoth": 3758,
  "\u2581deer": 3759,
  "\u2581reliev": 3760,
  "\u2581execution": 3761,
  "\u2581steamer": 3762,
  "\u2581hedge": 3763,
  "\u2581emma": 3764,
  "\u2581educat": 3765,
  "\u2581contact": 3766,
  "\u2581crimson": 3767,
  "\u2581disorder": 3768,
  "\u2581division": 3769,
  "\u2581copper": 3770,
  "\u2581moderate": 3771,
  "\u2581cure": 3772,
  "\u2581ox": 3773,
  "\u2581today": 3774,
  "\u2581wretch": 3775,
  "\u2581sch": 3776,
  "\u2581drops": 3777,
  "\u2581overwhelm": 3778,
  "\u2581shakespeare": 3779,
  "\u2581muscle": 3780,
  "\u2581tread": 3781,
  "\u2581chicken": 3782,
  "\u2581ends": 3783,
  "wick": 3784,
  "\u2581bible": 3785,
  "\u2581ridge": 3786,
  "\u2581quit": 3787,
  "\u2581lands": 3788,
  "lon": 3789,
  "\u2581v": 3790,
  "\u2581drum": 3791,
  "\u2581admirabl": 3792,
  "\u2581velvet": 3793,
  "\u2581idiot": 3794,
  "rity": 3795,
  "\u2581mars": 3796,
  "\u2581der": 3797,
  "\u2581martin": 3798,
  "\u2581counter": 3799,
  "\u2581temptation": 3800,
  "\u2581barrel": 3801,
  "\u2581persuade": 3802,
  "\u2581cling": 3803,
  "\u2581anti": 3804,
  "\u2581musical": 3805,
  "\u2581annoy": 3806,
  "\u2581penny": 3807,
  "ola": 3808,
  "\u2581trifle": 3809,
  "\u2581concentrat": 3810,
  "\u2581reject": 3811,
  "\u2581motor": 3812,
  "\u2581cordial": 3813,
  "\u2581ador": 3814,
  "\u2581mil": 3815,
  "\u2581hire": 3816,
  "\u2581apt": 3817,
  "\u2581infant": 3818,
  "\u2581confident": 3819,
  "\u2581thief": 3820,
  "\u2581survey": 3821,
  "\u2581vital": 3822,
  "\u2581jackson": 3823,
  "\u2581railway": 3824,
  "\u2581assurance": 3825,
  "\u2581breathing": 3826,
  "\u2581engine": 3827,
  "don": 3828,
  "\u2581moist": 3829,
  "\u2581recollection": 3830,
  "\u2581shad": 3831,
  "\u2581peaceful": 3832,
  "\u2581crash": 3833,
  "\u2581ruler": 3834,
  "\u2581majorit": 3835,
  "\u2581relate": 3836,
  "\u2581patt": 3837,
  "\u2581cub": 3838,
  "\u2581jacob": 3839,
  "\u2581clutch": 3840,
  "\u2581blanket": 3841,
  "\u2581tool": 3842,
  "\u2581nancy": 3843,
  "\u2581sack": 3844,
  "\u2581cellar": 3845,
  "\u2581shine": 3846,
  "\u2581frost": 3847,
  "\u2581convenient": 3848,
  "\u2581indignant": 3849,
  "\u2581screen": 3850,
  "\u2581transport": 3851,
  "\u2581coarse": 3852,
  "\u2581bullet": 3853,
  "\u2581determination": 3854,
  "\u2581induc": 3855,
  "\u2581conceive": 3856,
  "\u2581pronounced": 3857,
  "\u2581doth": 3858,
  "\u2581riches": 3859,
  "mate": 3860,
  "gar": 3861,
  "\u2581worm": 3862,
  "\u2581speaker": 3863,
  "\u2581devotion": 3864,
  "\u2581invisible": 3865,
  "\u2581mixture": 3866,
  "\u2581performance": 3867,
  "ai": 3868,
  "\u2581succession": 3869,
  "\u2581moor": 3870,
  "took": 3871,
  "\u2581bargain": 3872,
  "\u2581exquisite": 3873,
  "\u2581tobacco": 3874,
  "\u2581mould": 3875,
  "\u2581loyal": 3876,
  "\u2581daring": 3877,
  "\u2581minor": 3878,
  "\u2581rider": 3879,
  "\u2581emerg": 3880,
  "\u2581feathers": 3881,
  "\u2581attentive": 3882,
  "\u2581dorothy": 3883,
  "\u2581clothing": 3884,
  "\u2581construct": 3885,
  "\u2581establishment": 3886,
  "room": 3887,
  "\u2581liver": 3888,
  "\u2581issu": 3889,
  "\u2581heir": 3890,
  "\u2581brute": 3891,
  "aw": 3892,
  "\u2581complaint": 3893,
  "laughter": 3894,
  "\u2581realis": 3895,
  "\u2581partie": 3896,
  "\u2581essence": 3897,
  "\u2581borrow": 3898,
  "\u2581decent": 3899,
  "\u2581obscure": 3900,
  "\u2581dismay": 3901,
  "\u2581vow": 3902,
  "\u2581charity": 3903,
  "ou": 3904,
  "\u2581blade": 3905,
  "\u2581fist": 3906,
  "\u2581robb": 3907,
  "\u2581towns": 3908,
  "\u2581contented": 3909,
  "\u2581ham": 3910,
  "\u2581repent": 3911,
  "\u2581coffin": 3912,
  "\u2581pluck": 3913,
  "\u2581undoubted": 3914,
  "\u2581sooth": 3915,
  "\u2581stephen": 3916,
  "\u2581sunset": 3917,
  "\u2581cape": 3918,
  "\u2581peril": 3919,
  "\u2581painting": 3920,
  "\u2581eu": 3921,
  "\u2581confin": 3922,
  "hold": 3923,
  "\u2581trans": 3924,
  "\u2581inward": 3925,
  "\u2581desir": 3926,
  "\u2581economic": 3927,
  "\u2581holiday": 3928,
  "\u2581cotton": 3929,
  "\u2581humor": 3930,
  "\u2581retire": 3931,
  "\u2581mechanical": 3932,
  "\u2581curse": 3933,
  "\u2581balance": 3934,
  "\u2581replac": 3935,
  "\u2581pains": 3936,
  "\u2581boot": 3937,
  "\u2581miller": 3938,
  "\u2581ridiculous": 3939,
  "\u2581hesitation": 3940,
  "\u2581saving": 3941,
  "\u2581sancho": 3942,
  "\u2581songs": 3943,
  "\u2581lid": 3944,
  "\u2581inquire": 3945,
  "\u2581vine": 3946,
  "\u2581provide": 3947,
  "foot": 3948,
  "ith": 3949,
  "\u2581corpse": 3950,
  "\u2581travelling": 3951,
  "\u2581peak": 3952,
  "\u2581brandon": 3953,
  "\u2581procession": 3954,
  "\u2581handed": 3955,
  "\u2581cannon": 3956,
  "\u2581tan": 3957,
  "\u2581justifi": 3958,
  "\u2581elde": 3959,
  "\u2581despite": 3960,
  "\u2581cherish": 3961,
  "\u2581wilson": 3962,
  "\u2581edith": 3963,
  "\u2581resistance": 3964,
  "\u2581chi": 3965,
  "\u2581confession": 3966,
  "\u2581gang": 3967,
  "bro": 3968,
  "panish": 3969,
  "\u2581tendenc": 3970,
  "\u2581apprehension": 3971,
  "\u2581avenue": 3972,
  "\u2581drake": 3973,
  "\u2581froze": 3974,
  "\u2581dat": 3975,
  "\u2581comrades": 3976,
  "\u2581advised": 3977,
  "\u2581july": 3978,
  "\u2581fears": 3979,
  "\u2581linger": 3980,
  "\u2581inferior": 3981,
  "\u2581staircase": 3982,
  "\u2581carlyle": 3983,
  "\u2581couch": 3984,
  "nder": 3985,
  "\u2581stamp": 3986,
  "all": 3987,
  "\u2581lawn": 3988,
  "\u2581dine": 3989,
  "\u2581wherefore": 3990,
  "\u2581ensu": 3991,
  "\u2581obedien": 3992,
  "\u2581contemplat": 3993,
  "\u2581footstep": 3994,
  "\u2581tomorrow": 3995,
  "\u2581uncomfortabl": 3996,
  "\u2581carve": 3997,
  "\u2581throng": 3998,
  "\u2581naught": 3999,
  "\u2581breathe": 4000,
  "\u2581pie": 4001,
  "tur": 4002,
  "\u2581lee": 4003,
  "tta": 4004,
  "fall": 4005,
  "\u2581victor": 4006,
  "\u2581dispute": 4007,
  "\u2581suppos": 4008,
  "\u2581imperfect": 4009,
  "\u2581indifference": 4010,
  "\u2581reception": 4011,
  "\u2581residence": 4012,
  "\u2581vegetable": 4013,
  "\u2581violet": 4014,
  "\u2581turkey": 4015,
  "\u2581jerk": 4016,
  "\u2581altar": 4017,
  "\u2581sarah": 4018,
  "\u2581magician": 4019,
  "\u2581appreciat": 4020,
  "\u2581guardian": 4021,
  "\u2581partial": 4022,
  "cast": 4023,
  "\u2581val": 4024,
  "\u2581resign": 4025,
  "\u2581soften": 4026,
  "\u2581blossom": 4027,
  "\u2581lantern": 4028,
  "\u2581resolute": 4029,
  "\u2581offence": 4030,
  "car": 4031,
  "where": 4032,
  "\u2581allah": 4033,
  "\u2581shan": 4034,
  "\u2581accent": 4035,
  "\u2581lecture": 4036,
  "\u2581trumpet": 4037,
  "\u2581valjean": 4038,
  "\u2581unwilling": 4039,
  "\u2581creek": 4040,
  "\u2581slice": 4041,
  "\u2581normal": 4042,
  "\u2581fortnight": 4043,
  "\u2581collect": 4044,
  "\u2581holland": 4045,
  "\u2581annie": 4046,
  "\u2581hum": 4047,
  "\u2581beef": 4048,
  "ency": 4049,
  "\u2581coin": 4050,
  "\u2581til": 4051,
  "\u2581quot": 4052,
  "\u2581squ": 4053,
  "\u2581prose": 4054,
  "\u2581arrange": 4055,
  "\u2581dumb": 4056,
  "\u2581reviv": 4057,
  "\u2581comparative": 4058,
  "\u2581frederick": 4059,
  "\u2581disagreeable": 4060,
  "\u2581rushing": 4061,
  "\u2581collection": 4062,
  "\u2581indicate": 4063,
  "\u2581dew": 4064,
  "\u2581defin": 4065,
  "\u2581youngest": 4066,
  "\u2581reform": 4067,
  "\u2581import": 4068,
  "\u2581matthew": 4069,
  "\u2581convert": 4070,
  "\u2581crystal": 4071,
  "\u2581brisk": 4072,
  "\u2581literar": 4073,
  "\u2581romantic": 4074,
  "ella": 4075,
  "\u2581invention": 4076,
  "\u2581bend": 4077,
  "\u2581bred": 4078,
  "app": 4079,
  "\u2581englishman": 4080,
  "\u2581passes": 4081,
  "\u2581luc": 4082,
  "\u2581dense": 4083,
  "\u2581gravit": 4084,
  "\u2581michael": 4085,
  "\u2581mademoiselle": 4086,
  "\u2581cigar": 4087,
  "\u2581facing": 4088,
  "\u2581jones": 4089,
  "cation": 4090,
  "\u2581bunch": 4091,
  "\u2581lash": 4092,
  "\u2581introduce": 4093,
  "\u2581interior": 4094,
  "\u2581heav": 4095,
  "\u2581romance": 4096,
  "\u2581endur": 4097,
  "\u2581devour": 4098,
  "\u2581excellency": 4099,
  "\u2581gossip": 4100,
  "\u2581hammer": 4101,
  "\u2581pencil": 4102,
  "\u2581average": 4103,
  "\u2581stagger": 4104,
  "\u2581triumphant": 4105,
  "\u2581bending": 4106,
  "\u2581mag": 4107,
  "\u2581creation": 4108,
  "\u2581thankful": 4109,
  "\u2581hoping": 4110,
  "\u2581thorn": 4111,
  "\u2581blaz": 4112,
  "\u2581bond": 4113,
  "\u2581involuntar": 4114,
  "\u2581occupy": 4115,
  "\u2581application": 4116,
  "\u2581salv": 4117,
  "\u2581pierc": 4118,
  "\u2581awe": 4119,
  "\u2581captur": 4120,
  "\u2581hearti": 4121,
  "\u2581rob": 4122,
  "cha": 4123,
  "ew": 4124,
  "\u2581ascertain": 4125,
  "\u2581corridor": 4126,
  "\u2581delicious": 4127,
  "\u2581universe": 4128,
  "\u2581shilling": 4129,
  "\u2581contest": 4130,
  "\u2581fishing": 4131,
  "\u2581model": 4132,
  "\u2581turns": 4133,
  "\u2581masters": 4134,
  "\u2581innocenc": 4135,
  "\u2581rigid": 4136,
  "\u2581administration": 4137,
  "\u2581claw": 4138,
  "\u2581ashore": 4139,
  "\u2581moan": 4140,
  "\u2581troubl": 4141,
  "\u2581adventures": 4142,
  "\u2581bodi": 4143,
  "\u2581parish": 4144,
  "long": 4145,
  "\u2581adorn": 4146,
  "\u2581wak": 4147,
  "\u2581anticipat": 4148,
  "\u2581campaign": 4149,
  "\u2581landscape": 4150,
  "\u2581telegraph": 4151,
  "\u2581ban": 4152,
  "\u2581flourish": 4153,
  "\u2581gap": 4154,
  "\u2581whistl": 4155,
  "\u2581bald": 4156,
  "\u2581span": 4157,
  "\u2581oppress": 4158,
  "ttle": 4159,
  "\u2581hal": 4160,
  "\u2581challenge": 4161,
  "\u2581torrent": 4162,
  "\u2581hurl": 4163,
  "\u2581strick": 4164,
  "\u2581wip": 4165,
  "\u2581hood": 4166,
  "\u2581brass": 4167,
  "\u2581ski": 4168,
  "\u2581goose": 4169,
  "\u2581explor": 4170,
  "\u2581judg": 4171,
  "\u2581angri": 4172,
  "ulat": 4173,
  "\u2581roads": 4174,
  "\u2581illness": 4175,
  "\u2581hull": 4176,
  "\u2581breathless": 4177,
  "\u2581sauce": 4178,
  "\u2581tribe": 4179,
  "\u2581submit": 4180,
  "\u2581quixote": 4181,
  "\u2581responsibilit": 4182,
  "\u2581raft": 4183,
  "\u2581jimmy": 4184,
  "\u2581glid": 4185,
  "\u2581niece": 4186,
  "one": 4187,
  "\u2581selfish": 4188,
  "\u2581map": 4189,
  "\u2581mansion": 4190,
  "\u2581chatter": 4191,
  "can": 4192,
  "\u2581ji": 4193,
  "\u2581envy": 4194,
  "\u2581latin": 4195,
  "\u2581boston": 4196,
  "\u2581fanny": 4197,
  "\u2581richmond": 4198,
  "\u2581demon": 4199,
  "\u2581rosy": 4200,
  "\u2581glacier": 4201,
  "\u2581raggedy": 4202,
  "\u2581phil": 4203,
  "\u2581collected": 4204,
  "\u2581sixth": 4205,
  "\u2581tune": 4206,
  "\u2581faster": 4207,
  "\u2581abuse": 4208,
  "ake": 4209,
  "\u2581maxim": 4210,
  "\u2581vulgar": 4211,
  "\u2581solomon": 4212,
  "\u2581stalk": 4213,
  "\u2581restore": 4214,
  "\u2581dwel": 4215,
  "\u2581natured": 4216,
  "\u2581canoe": 4217,
  "\u2581forbid": 4218,
  "\u2581convict": 4219,
  "\u2581bur": 4220,
  "\u2581interpret": 4221,
  "\u2581reserve": 4222,
  "\u2581admiral": 4223,
  "\u2581april": 4224,
  "\u2581permanent": 4225,
  "\u2581ribbon": 4226,
  "\u2581neighborhood": 4227,
  "\u2581swim": 4228,
  "\u2581stroll": 4229,
  "\u2581complexion": 4230,
  "\u2581employment": 4231,
  "\u2581clo": 4232,
  "\u2581statue": 4233,
  "\u2581basin": 4234,
  "\u2581release": 4235,
  "ching": 4236,
  "\u2581drawer": 4237,
  "\u2581drag": 4238,
  "\u2581fascinat": 4239,
  "\u2581republic": 4240,
  "\u2581horrid": 4241,
  "\u2581penetrate": 4242,
  "\u2581reconcil": 4243,
  "\u2581septemb": 4244,
  "\u2581spaniard": 4245,
  "\u2581suspend": 4246,
  "\u2581telephone": 4247,
  "\u2581temperature": 4248,
  "\u2581stove": 4249,
  "\u2581oyster": 4250,
  "\u2581johnny": 4251,
  "\u2581tiger": 4252,
  "\u2581spark": 4253,
  "\u2581prudence": 4254,
  "\u2581egyptian": 4255,
  "\u2581appointment": 4256,
  "\u2581wherein": 4257,
  "\u2581resembl": 4258,
  "\u2581harp": 4259,
  "\u2581procure": 4260,
  "\u2581temporar": 4261,
  "\u2581landing": 4262,
  "\u2581compare": 4263,
  "\u2581gilbert": 4264,
  "\u2581nephew": 4265,
  "\u2581railroad": 4266,
  "\u2581device": 4267,
  "\u2581twinkl": 4268,
  "\u2581mission": 4269,
  "\u2581patron": 4270,
  "tte": 4271,
  "\u2581dante": 4272,
  "\u2581impose": 4273,
  "\u2581wheat": 4274,
  "miss": 4275,
  "ison": 4276,
  "\u2581shower": 4277,
  "say": 4278,
  "\u2581elegant": 4279,
  "\u2581hercule": 4280,
  "\u2581link": 4281,
  "ino": 4282,
  "\u2581roger": 4283,
  "\u2581election": 4284,
  "\u2581dug": 4285,
  "lar": 4286,
  "\u2581mast": 4287,
  "\u2581slipper": 4288,
  "\u2581rational": 4289,
  "\u2581turtle": 4290,
  "\u2581brood": 4291,
  "\u2581mob": 4292,
  "\u2581stall": 4293,
  "\u2581steward": 4294,
  "\u2581advise": 4295,
  "\u2581spin": 4296,
  "\u2581conceiv": 4297,
  "\u2581para": 4298,
  "\u2581searching": 4299,
  "\u2581beth": 4300,
  "\u2581specimen": 4301,
  "\u2581editor": 4302,
  "\u2581whale": 4303,
  "\u2581balloon": 4304,
  "\u2581medical": 4305,
  "\u2581travell": 4306,
  "\u2581launcelot": 4307,
  "\u2581errand": 4308,
  "\u2581composition": 4309,
  "\u2581discourse": 4310,
  "\u2581shalt": 4311,
  "\u2581jacket": 4312,
  "\u2581stake": 4313,
  "\u2581wan": 4314,
  "\u2581seeming": 4315,
  "\u2581bert": 4316,
  "\u2581pirates": 4317,
  "\u2581fulfill": 4318,
  "\u2581bars": 4319,
  "\u2581bye": 4320,
  "\u2581suffice": 4321,
  "\u2581anguish": 4322,
  "\u2581shaggy": 4323,
  "\u2581steer": 4324,
  "\u2581robe": 4325,
  "\u2581wink": 4326,
  "\u2581assembly": 4327,
  "\u2581blast": 4328,
  "\u2581upright": 4329,
  "\u2581stirring": 4330,
  "bal": 4331,
  "\u2581gree": 4332,
  "\u2581terribl": 4333,
  "\u2581unjust": 4334,
  "\u2581timber": 4335,
  "\u2581knel": 4336,
  "\u2581flora": 4337,
  "\u2581hound": 4338,
  "\u2581joyous": 4339,
  "\u2581lor": 4340,
  "\u2581pursue": 4341,
  "\u2581fal": 4342,
  "\u2581hearted": 4343,
  "\u2581acknowledg": 4344,
  "\u2581abstract": 4345,
  "\u2581embroider": 4346,
  "\u2581photograph": 4347,
  "\u2581threshold": 4348,
  "\u2581pavement": 4349,
  "\u2581limp": 4350,
  "\u2581settlement": 4351,
  "\u2581rum": 4352,
  "\u2581fred": 4353,
  "\u2581jury": 4354,
  "\u2581prime": 4355,
  "\u2581glowing": 4356,
  "\u2581levin": 4357,
  "\u2581vanit": 4358,
  "\u2581africa": 4359,
  "\u2581assign": 4360,
  "gate": 4361,
  "\u2581pant": 4362,
  "\u2581route": 4363,
  "\u2581deadly": 4364,
  "\u2581ash": 4365,
  "\u2581rascal": 4366,
  "\u2581instruct": 4367,
  "\u2581nat": 4368,
  "\u2581harris": 4369,
  "\u2581simplicit": 4370,
  "\u2581agitation": 4371,
  "\u2581joyful": 4372,
  "\u2581eighth": 4373,
  "\u2581polic": 4374,
  "\u2581agitat": 4375,
  "\u2581combination": 4376,
  "\u2581obstacle": 4377,
  "\u2581slumber": 4378,
  "\u2581drain": 4379,
  "\u2581wilderness": 4380,
  "\u2581interfere": 4381,
  "\u2581wail": 4382,
  "\u2581crop": 4383,
  "fish": 4384,
  "\u2581pressing": 4385,
  "\u2581believing": 4386,
  "\u2581reckless": 4387,
  "\u2581traged": 4388,
  "\u2581friday": 4389,
  "\u2581fawn": 4390,
  "\u2581villain": 4391,
  "\u2581clapp": 4392,
  "\u2581butler": 4393,
  "\u2581ki": 4394,
  "\u2581tailor": 4395,
  "\u2581kneel": 4396,
  "atory": 4397,
  "\u2581prosperit": 4398,
  "\u2581speedi": 4399,
  "\u2581ceiling": 4400,
  "\u2581plague": 4401,
  "\u2581sledge": 4402,
  "\u2581symptom": 4403,
  "\u2581transform": 4404,
  "\u2581kennedy": 4405,
  "\u2581venus": 4406,
  "\u2581monday": 4407,
  "\u2581impatien": 4408,
  "\u2581disguise": 4409,
  "\u2581lemon": 4410,
  "\u2581canvas": 4411,
  "\u2581slay": 4412,
  "\u2581european": 4413,
  "\u2581effective": 4414,
  "\u2581politeness": 4415,
  "ire": 4416,
  "hu": 4417,
  "\u2581ink": 4418,
  "\u2581fright": 4419,
  "\u2581dishe": 4420,
  "\u2581dropping": 4421,
  "\u2581endless": 4422,
  "\u2581inhabit": 4423,
  "\u2581induce": 4424,
  "\u2581sire": 4425,
  "\u2581franz": 4426,
  "\u2581senator": 4427,
  "\u2581swimming": 4428,
  "\u2581barrier": 4429,
  "\u2581compassion": 4430,
  "\u2581prop": 4431,
  "\u2581forgett": 4432,
  "\u2581pea": 4433,
  "\u2581proclaim": 4434,
  "\u2581overlook": 4435,
  "\u2581wrinkl": 4436,
  "\u2581mitya": 4437,
  "\u2581enquir": 4438,
  "\u2581comparison": 4439,
  "\u2581foul": 4440,
  "\u2581daint": 4441,
  "\u2581glasse": 4442,
  "\u2581guilt": 4443,
  "\u2581flies": 4444,
  "oes": 4445,
  "\u2581lust": 4446,
  "burn": 4447,
  "\u2581lifting": 4448,
  "\u2581distract": 4449,
  "\u2581perception": 4450,
  "\u2581precaution": 4451,
  "\u2581spectator": 4452,
  "\u2581surprising": 4453,
  "\u2581testimon": 4454,
  "\u2581tyrann": 4455,
  "\u2581bonnet": 4456,
  "\u2581graham": 4457,
  "\u2581jason": 4458,
  "dor": 4459,
  "\u2581wont": 4460,
  "\u2581crest": 4461,
  "\u2581plat": 4462,
  "\u2581procur": 4463,
  "\u2581profess": 4464,
  "\u2581confound": 4465,
  "\u2581descent": 4466,
  "\u2581globe": 4467,
  "\u2581structure": 4468,
  "\u2581ultimate": 4469,
  "\u2581sketch": 4470,
  "\u2581orchard": 4471,
  "\u2581insect": 4472,
  "\u2581narrative": 4473,
  "\u2581amiable": 4474,
  "\u2581inspector": 4475,
  "\u2581convers": 4476,
  "\u2581hurrying": 4477,
  "\u2581troop": 4478,
  "\u2581boxe": 4479,
  "\u2581refer": 4480,
  "\u2581thence": 4481,
  "\u2581complex": 4482,
  "\u2581cushion": 4483,
  "\u2581eminent": 4484,
  "\u2581independence": 4485,
  "\u2581array": 4486,
  "\u2581nightingale": 4487,
  "\u2581waving": 4488,
  "\u2581cosette": 4489,
  "\u2581banner": 4490,
  "\u2581ter": 4491,
  "\u2581scott": 4492,
  "\u2581suck": 4493,
  "ana": 4494,
  "\u2581bro": 4495,
  "\u2581pol": 4496,
  "drew": 4497,
  "\u2581despise": 4498,
  "\u2581ken": 4499,
  "uary": 4500,
  "ridge": 4501,
  "\u2581sur": 4502,
  "\u2581quitt": 4503,
  "\u2581pinch": 4504,
  "\u2581gib": 4505,
  "\u2581caution": 4506,
  "\u2581irregular": 4507,
  "\u2581achiev": 4508,
  "\u2581extract": 4509,
  "\u2581spar": 4510,
  "\u2581fil": 4511,
  "rate": 4512,
  "\u2581instinctive": 4513,
  "\u2581ya": 4514,
  "\u2581flutter": 4515,
  "\u2581dame": 4516,
  "\u2581spy": 4517,
  "cla": 4518,
  "\u2581grind": 4519,
  "\u2581qui": 4520,
  "hen": 4521,
  "\u2581troubles": 4522,
  "\u2581suspicious": 4523,
  "\u2581subtle": 4524,
  "oc": 4525,
  "ick": 4526,
  "\u2581bite": 4527,
  "\u2581conclude": 4528,
  "ean": 4529,
  "\u2581nowhere": 4530,
  "\u2581bak": 4531,
  "\u2581sim": 4532,
  "\u2581appropriate": 4533,
  "\u2581calculate": 4534,
  "\u2581abode": 4535,
  "\u2581thumb": 4536,
  "\u2581twas": 4537,
  "\u2581providence": 4538,
  "\u2581morgan": 4539,
  "\u2581slaughter": 4540,
  "\u2581carr": 4541,
  "\u2581flowing": 4542,
  "\u2581divide": 4543,
  "\u2581professional": 4544,
  "izing": 4545,
  "\u2581formal": 4546,
  "\u2581relieve": 4547,
  "\u2581stray": 4548,
  "\u2581conspicuous": 4549,
  "\u2581rebecca": 4550,
  "\u2581sergeant": 4551,
  "\u2581captive": 4552,
  "\u2581cavern": 4553,
  "\u2581crouch": 4554,
  "\u2581apron": 4555,
  "\u2581gal": 4556,
  "\u2581divers": 4557,
  "\u2581lordship": 4558,
  "\u2581glittering": 4559,
  "\u2581nut": 4560,
  "\u2581woke": 4561,
  "\u2581je": 4562,
  "\u2581ragged": 4563,
  "\u2581sal": 4564,
  "\u2581mun": 4565,
  "ice": 4566,
  "\u2581highness": 4567,
  "\u2581howl": 4568,
  "\u2581discipline": 4569,
  "\u2581glancing": 4570,
  "\u2581universit": 4571,
  "\u2581sullen": 4572,
  "\u2581drear": 4573,
  "\u2581foam": 4574,
  "\u2581cruelty": 4575,
  "\u2581joint": 4576,
  "\u2581production": 4577,
  "\u2581maker": 4578,
  "ground": 4579,
  "\u2581indi": 4580,
  "\u2581commerc": 4581,
  "\u2581prairie": 4582,
  "\u2581reverence": 4583,
  "\u2581trouser": 4584,
  "\u2581extra": 4585,
  "\u2581pad": 4586,
  "\u2581stores": 4587,
  "\u2581lament": 4588,
  "\u2581choke": 4589,
  "nny": 4590,
  "\u2581soup": 4591,
  "\u2581critical": 4592,
  "\u2581falls": 4593,
  "\u2581corners": 4594,
  "\u2581covering": 4595,
  "\u2581associate": 4596,
  "\u2581rivers": 4597,
  "\u2581terrifi": 4598,
  "responsible": 4599,
  "\u2581diminish": 4600,
  "\u2581exclamation": 4601,
  "\u2581parlour": 4602,
  "\u2581phenomena": 4603,
  "\u2581stump": 4604,
  "\u2581symbol": 4605,
  "\u2581umbrella": 4606,
  "\u2581muscular": 4607,
  "\u2581rebel": 4608,
  "\u2581cough": 4609,
  "\u2581swamp": 4610,
  "\u2581beds": 4611,
  "\u2581bre": 4612,
  "\u2581winding": 4613,
  "\u2581tribes": 4614,
  "\u2581deceive": 4615,
  "\u2581whistle": 4616,
  "\u2581tap": 4617,
  "lli": 4618,
  "\u2581remembrance": 4619,
  "\u2581shaft": 4620,
  "\u2581sheriff": 4621,
  "\u2581extensive": 4622,
  "\u2581pleasing": 4623,
  "\u2581thicket": 4624,
  "\u2581hugh": 4625,
  "\u2581turk": 4626,
  "\u2581entertainment": 4627,
  "\u2581blows": 4628,
  "\u2581reasoning": 4629,
  "\u2581combined": 4630,
  "\u2581sinking": 4631,
  "istic": 4632,
  "\u2581sk": 4633,
  "\u2581attribute": 4634,
  "tercourse": 4635,
  "\u2581painter": 4636,
  "\u2581mare": 4637,
  "\u2581engage": 4638,
  "\u2581entitle": 4639,
  "\u2581landlord": 4640,
  "\u2581caesar": 4641,
  "\u2581shrink": 4642,
  "\u2581prick": 4643,
  "\u2581invest": 4644,
  "\u2581quiver": 4645,
  "lus": 4646,
  "\u2581behave": 4647,
  "\u2581bother": 4648,
  "\u2581fitting": 4649,
  "\u2581follower": 4650,
  "\u2581maggie": 4651,
  "\u2581nautilus": 4652,
  "\u2581sphere": 4653,
  "\u2581commercial": 4654,
  "\u2581brutal": 4655,
  "\u2581constitute": 4656,
  "far": 4657,
  "\u2581fogg": 4658,
  "\u2581recognis": 4659,
  "\u2581kat": 4660,
  "\u2581envelope": 4661,
  "\u2581threatening": 4662,
  "\u2581capture": 4663,
  "\u2581filling": 4664,
  "\u2581blowing": 4665,
  "\u2581upset": 4666,
  "ji": 4667,
  "cus": 4668,
  "\u2581situat": 4669,
  "\u2581interpos": 4670,
  "\u2581brethren": 4671,
  "\u2581housekeeper": 4672,
  "\u2581crazy": 4673,
  "\u2581davy": 4674,
  "\u2581ardent": 4675,
  "\u2581marquis": 4676,
  "\u2581mournful": 4677,
  "\u2581balls": 4678,
  "\u2581lent": 4679,
  "\u2581semi": 4680,
  "\u2581sailing": 4681,
  "\u2581russia": 4682,
  "\u2581downward": 4683,
  "\u2581salut": 4684,
  "\u2581grounds": 4685,
  "\u2581greeting": 4686,
  "mouth": 4687,
  "\u2581investigat": 4688,
  "\u2581britain": 4689,
  "\u2581concert": 4690,
  "\u2581harbour": 4691,
  "\u2581slim": 4692,
  "\u2581donkey": 4693,
  "\u2581peasants": 4694,
  "\u2581clover": 4695,
  "\u2581fund": 4696,
  "\u2581discharge": 4697,
  "\u2581dreaming": 4698,
  "\u2581confessed": 4699,
  "\u2581aboard": 4700,
  "\u2581han": 4701,
  "\u2581mul": 4702,
  "\u2581laura": 4703,
  "\u2581hinder": 4704,
  "\u2581alight": 4705,
  "\u2581culture": 4706,
  "\u2581julius": 4707,
  "\u2581monstrous": 4708,
  "\u2581paradise": 4709,
  "\u2581raoul": 4710,
  "\u2581invariabl": 4711,
  "\u2581remedy": 4712,
  "\u2581decay": 4713,
  "\u2581scold": 4714,
  "\u2581split": 4715,
  "\u2581sunny": 4716,
  "\u2581virgin": 4717,
  "\u2581exertion": 4718,
  "\u2581scro": 4719,
  "\u2581za": 4720,
  "\u2581resolve": 4721,
  "\u2581shaken": 4722,
  "\u2581tightly": 4723,
  "\u2581sting": 4724,
  "\u2581super": 4725,
  "\u2581fork": 4726,
  "\u2581trim": 4727,
  "\u2581zeal": 4728,
  "\u2581refresh": 4729,
  "\u2581ape": 4730,
  "\u2581assault": 4731,
  "\u2581moscow": 4732,
  "\u2581december": 4733,
  "\u2581wrist": 4734,
  "\u2581probabilit": 4735,
  "\u2581literal": 4736,
  "\u2581chuckle": 4737,
  "\u2581excessive": 4738,
  "\u2581rac": 4739,
  "\u2581picking": 4740,
  "\u2581charg": 4741,
  "lier": 4742,
  "\u2581declin": 4743,
  "piece": 4744,
  "\u2581combat": 4745,
  "\u2581non": 4746,
  "\u2581gir": 4747,
  "\u2581excit": 4748,
  "tch": 4749,
  "\u2581marian": 4750,
  "\u2581depriv": 4751,
  "\u2581tyrant": 4752,
  "\u2581valentine": 4753,
  "\u2581abraham": 4754,
  "\u2581delicac": 4755,
  "\u2581exalt": 4756,
  "\u2581strait": 4757,
  "\u2581medium": 4758,
  "\u2581amusing": 4759,
  "\u2581banish": 4760,
  "\u2581allan": 4761,
  "\u2581determine": 4762,
  "\u2581closing": 4763,
  "\u2581investigation": 4764,
  "\u2581haul": 4765,
  "\u2581lung": 4766,
  "\u2581darken": 4767,
  "\u2581area": 4768,
  "\u2581strengthen": 4769,
  "\u2581bonds": 4770,
  "loo": 4771,
  "\u2581artificial": 4772,
  "\u2581detain": 4773,
  "\u2581swarm": 4774,
  "lves": 4775,
  "\u2581pledge": 4776,
  "\u2581resemblance": 4777,
  "\u2581rings": 4778,
  "\u2581chopp": 4779,
  "\u2581blu": 4780,
  "\u2581obligation": 4781,
  "\u2581prim": 4782,
  "\u2581helping": 4783,
  "\u2581eh": 4784,
  "\u2581critic": 4785,
  "ancy": 4786,
  "fold": 4787,
  "\u2581tenth": 4788,
  "\u2581defect": 4789,
  "\u2581dismal": 4790,
  "\u2581clung": 4791,
  "\u2581haught": 4792,
  "\u2581breton": 4793,
  "mont": 4794,
  "\u2581forbidd": 4795,
  "ram": 4796,
  "\u2581hostil": 4797,
  "\u2581fry": 4798,
  "\u2581staying": 4799,
  "aries": 4800,
  "\u2581commissioner": 4801,
  "\u2581deserved": 4802,
  "\u2581recit": 4803,
  "\u2581hearth": 4804,
  "\u2581cliffs": 4805,
  "\u2581ignor": 4806,
  "\u2581gardener": 4807,
  "\u2581wool": 4808,
  "\u2581nun": 4809,
  "\u2581mayor": 4810,
  "\u2581amelia": 4811,
  "\u2581justify": 4812,
  "\u2581chant": 4813,
  "\u2581team": 4814,
  "\u2581communicat": 4815,
  "\u2581ul": 4816,
  "\u2581lyn": 4817,
  "\u2581entr": 4818,
  "\u2581yea": 4819,
  "night": 4820,
  "arian": 4821,
  "\u2581resemble": 4822,
  "\u2581op": 4823,
  "lay": 4824,
  "oge": 4825,
  "\u2581elephant": 4826,
  "\u2581incredibl": 4827,
  "\u2581shrill": 4828,
  "borough": 4829,
  "\u2581spargo": 4830,
  "\u2581nove": 4831,
  "\u2581invad": 4832,
  "\u2581enthusiastic": 4833,
  "\u2581endow": 4834,
  "\u2581gale": 4835,
  "\u2581cage": 4836,
  "town": 4837,
  "qua": 4838,
  "\u2581compass": 4839,
  "\u2581exert": 4840,
  "\u2581drama": 4841,
  "\u2581alexander": 4842,
  "\u2581disclos": 4843,
  "\u2581extremit": 4844,
  "\u2581wrought": 4845,
  "\u2581regain": 4846,
  "\u2581pretti": 4847,
  "\u2581sneer": 4848,
  "\u2581sweat": 4849,
  "\u2581formidabl": 4850,
  "\u2581glare": 4851,
  "\u2581rash": 4852,
  "\u2581hawk": 4853,
  "vin": 4854,
  "\u2581louder": 4855,
  "\u2581bigger": 4856,
  "cra": 4857,
  "\u2581dipp": 4858,
  "\u2581gall": 4859,
  "\u2581surviv": 4860,
  "\u2581longing": 4861,
  "\u2581pac": 4862,
  "\u2581worri": 4863,
  "\u2581exceed": 4864,
  "\u2581fier": 4865,
  "\u2581marsh": 4866,
  "\u2581sickness": 4867,
  "atic": 4868,
  "\u2581abundant": 4869,
  "\u2581subsid": 4870,
  "\u2581rust": 4871,
  "\u2581fin": 4872,
  "\u2581tur": 4873,
  "\u2581threat": 4874,
  "\u2581bough": 4875,
  "\u2581escort": 4876,
  "\u2581psmith": 4877,
  "\u2581resort": 4878,
  "\u2581marvel": 4879,
  "\u2581inevitable": 4880,
  "\u2581raw": 4881,
  "\u2581sorrowful": 4882,
  "\u2581nigh": 4883,
  "\u2581brows": 4884,
  "\u2581onward": 4885,
  "\u2581declaration": 4886,
  "\u2581reluctant": 4887,
  "\u2581childish": 4888,
  "\u2581beau": 4889,
  "\u2581rap": 4890,
  "half": 4891,
  "\u2581shar": 4892,
  "\u2581bags": 4893,
  "\u2581ambassador": 4894,
  "\u2581consolation": 4895,
  "\u2581recognition": 4896,
  "\u2581remorse": 4897,
  "\u2581swords": 4898,
  "\u2581reserved": 4899,
  "\u2581py": 4900,
  "\u2581dora": 4901,
  "\u2581stat": 4902,
  "\u2581closet": 4903,
  "\u2581revolver": 4904,
  "lm": 4905,
  "\u2581equ": 4906,
  "rung": 4907,
  "\u2581acquire": 4908,
  "\u2581bury": 4909,
  "\u2581matur": 4910,
  "rai": 4911,
  "\u2581bulk": 4912,
  "\u2581confront": 4913,
  "\u2581gigantic": 4914,
  "\u2581october": 4915,
  "dolph": 4916,
  "\u2581flank": 4917,
  "\u2581slew": 4918,
  "\u2581ellen": 4919,
  "\u2581bug": 4920,
  "\u2581pomp": 4921,
  "\u2581clara": 4922,
  "\u2581create": 4923,
  "\u2581warrior": 4924,
  "\u2581film": 4925,
  "\u2581arrows": 4926,
  "\u2581grinn": 4927,
  "mc": 4928,
  "\u2581keys": 4929,
  "\u2581sandy": 4930,
  "\u2581medi": 4931,
  "\u2581workmen": 4932,
  "\u2581affirm": 4933,
  "\u2581bronze": 4934,
  "\u2581cavalry": 4935,
  "\u2581eleanor": 4936,
  "\u2581emphasis": 4937,
  "\u2581exclusive": 4938,
  "\u2581perfume": 4939,
  "\u2581liquid": 4940,
  "\u2581federal": 4941,
  "\u2581oven": 4942,
  "\u2581attraction": 4943,
  "\u2581dost": 4944,
  "\u2581rattl": 4945,
  "\u2581bud": 4946,
  "\u2581studio": 4947,
  "\u2581fare": 4948,
  "\u2581rever": 4949,
  "\u2581cluster": 4950,
  "\u2581significant": 4951,
  "\u2581stool": 4952,
  "\u2581martha": 4953,
  "\u2581travers": 4954,
  "\u2581waistcoat": 4955,
  "\u2581dictat": 4956,
  "\u2581deaf": 4957,
  "\u2581pillar": 4958,
  "\u2581lime": 4959,
  "\u2581unworth": 4960,
  "\u2581approve": 4961,
  "\u2581releas": 4962,
  "\u2581gau": 4963,
  "cle": 4964,
  "\u2581parting": 4965,
  "\u2581ripe": 4966,
  "\u2581gran": 4967,
  "\u2581involv": 4968,
  "\u2581accidental": 4969,
  "\u2581veri": 4970,
  "\u2581enclos": 4971,
  "\u2581attorney": 4972,
  "\u2581skilful": 4973,
  "\u2581droop": 4974,
  "\u2581habitual": 4975,
  "\u2581shelf": 4976,
  "\u2581pudding": 4977,
  "\u2581interven": 4978,
  "\u2581pump": 4979,
  "\u2581wil": 4980,
  "\u2581potent": 4981,
  "\u2581betty": 4982,
  "\u2581protestant": 4983,
  "\u2581durham": 4984,
  "\u2581assertion": 4985,
  "\u2581harness": 4986,
  "pen": 4987,
  "\u2581firing": 4988,
  "\u2581treasur": 4989,
  "bri": 4990,
  "\u2581locks": 4991,
  "\u2581deemed": 4992,
  "\u2581pushing": 4993,
  "\u2581clearing": 4994,
  "\u2581solv": 4995,
  "back": 4996,
  "\u2581perplex": 4997,
  "\u2581illustrat": 4998,
  "\u2581pon": 4999,
  "\u2581conjecture": 5000,
  "\u2581document": 5001,
  "\u2581fantastic": 5002,
  "\u2581gulf": 5003,
  "\u2581warrant": 5004,
  "\u2581goddess": 5005,
  "ograph": 5006,
  "\u2581bridle": 5007,
  "\u2581costume": 5008,
  "\u2581grape": 5009,
  "\u2581prolong": 5010,
  "war": 5011,
  "\u2581organization": 5012,
  "\u2581owl": 5013,
  "\u2581oars": 5014,
  "\u2581stare": 5015,
  "\u2581pacific": 5016,
  "\u2581agreement": 5017,
  "\u2581canal": 5018,
  "\u2581crumb": 5019,
  "\u2581peg": 5020,
  "\u2581tire": 5021,
  "bridge": 5022,
  "\u2581decorat": 5023,
  "\u2581slo": 5024,
  "\u2581california": 5025,
  "\u2581eustace": 5026,
  "\u2581plough": 5027,
  "\u2581squirrel": 5028,
  "\u2581uncommon": 5029,
  "\u2581degrad": 5030,
  "\u2581vault": 5031,
  "\u2581shrugg": 5032,
  "\u2581marvellous": 5033,
  "\u2581groom": 5034,
  "\u2581drunken": 5035,
  "\u2581lowest": 5036,
  "\u2581democratic": 5037,
  "gram": 5038,
  "\u2581nuts": 5039,
  "\u2581appreciate": 5040,
  "\u2581dealing": 5041,
  "\u2581admiring": 5042,
  "\u2581comprehensi": 5043,
  "\u2581corporal": 5044,
  "\u2581refrain": 5045,
  "\u2581unnecessar": 5046,
  "\u2581shrewd": 5047,
  "\u2581pattern": 5048,
  "\u2581remainder": 5049,
  "\u2581acre": 5050,
  "\u2581milton": 5051,
  "\u2581banker": 5052,
  "\u2581ringing": 5053,
  "\u2581purchas": 5054,
  "\u2581adding": 5055,
  "\u2581illuminat": 5056,
  "\u2581rue": 5057,
  "\u2581behav": 5058,
  "\u2581rot": 5059,
  "\u2581sins": 5060,
  "ology": 5061,
  "\u2581monument": 5062,
  "\u2581squeez": 5063,
  "\u2581tempest": 5064,
  "\u2581siege": 5065,
  "\u2581accurate": 5066,
  "\u2581raven": 5067,
  "\u2581ivan": 5068,
  "\u2581loung": 5069,
  "\u2581attractive": 5070,
  "ju": 5071,
  "\u2581bake": 5072,
  "\u2581pirate": 5073,
  "\u2581whipp": 5074,
  "ware": 5075,
  "\u2581enabl": 5076,
  "\u2581ali": 5077,
  "\u2581propriet": 5078,
  "\u2581assassin": 5079,
  "\u2581inflict": 5080,
  "\u2581launch": 5081,
  "\u2581pilot": 5082,
  "\u2581hasn": 5083,
  "\u2581mute": 5084,
  "\u2581basi": 5085,
  "\u2581desirable": 5086,
  "\u2581immortal": 5087,
  "\u2581unsee": 5088,
  "\u2581traveler": 5089,
  "\u2581reverse": 5090,
  "\u2581pulse": 5091,
  "\u2581excess": 5092,
  "\u2581ancestor": 5093,
  "\u2581desolate": 5094,
  "\u2581liquor": 5095,
  "\u2581scarecrow": 5096,
  "\u2581skull": 5097,
  "\u2581sublime": 5098,
  "\u2581ticket": 5099,
  "\u2581righteous": 5100,
  "\u2581bluff": 5101,
  "\u2581wick": 5102,
  "\u2581recess": 5103,
  "\u2581jaws": 5104,
  "\u2581involve": 5105,
  "uous": 5106,
  "\u2581damage": 5107,
  "\u2581nap": 5108,
  "rice": 5109,
  "\u2581presume": 5110,
  "\u2581unb": 5111,
  "\u2581serene": 5112,
  "justice": 5113,
  "illa": 5114,
  "\u2581convention": 5115,
  "\u2581charlotte": 5116,
  "\u2581pinocchio": 5117,
  "\u2581priscilla": 5118,
  "\u2581casual": 5119,
  "\u2581circular": 5120,
  "\u2581frantic": 5121,
  "\u2581thieve": 5122,
  "\u2581occurrence": 5123,
  "\u2581stifl": 5124,
  "\u2581legend": 5125,
  "\u2581incapab": 5126,
  "\u2581trout": 5127,
  "\u2581nobil": 5128,
  "\u2581trifl": 5129,
  "\u2581tube": 5130,
  "\u2581athenian": 5131,
  "\u2581throb": 5132,
  "\u2581crust": 5133,
  "ich": 5134,
  "\u2581stocking": 5135,
  "\u2581mole": 5136,
  "rick": 5137,
  "\u2581shave": 5138,
  "\u2581bin": 5139,
  "\u2581armor": 5140,
  "\u2581bang": 5141,
  "\u2581quart": 5142,
  "titude": 5143,
  "\u2581miner": 5144,
  "\u2581isle": 5145,
  "\u2581stamped": 5146,
  "\u2581nora": 5147,
  "\u2581penn": 5148,
  "\u2581interrupt": 5149,
  "\u2581supp": 5150,
  "\u2581customer": 5151,
  "\u2581isolat": 5152,
  "\u2581resid": 5153,
  "\u2581aye": 5154,
  "\u2581estralla": 5155,
  "\u2581manuscript": 5156,
  "\u2581response": 5157,
  "\u2581scandal": 5158,
  "\u2581stumble": 5159,
  "\u2581wolve": 5160,
  "\u2581tangle": 5161,
  "alem": 5162,
  "\u2581patsy": 5163,
  "rum": 5164,
  "\u2581hoarse": 5165,
  "\u2581background": 5166,
  "\u2581mock": 5167,
  "\u2581x": 5168,
  "\u2581frenchman": 5169,
  "\u2581convince": 5170,
  "\u2581allud": 5171,
  "\u2581hom": 5172,
  "\u2581horns": 5173,
  "ulation": 5174,
  "\u2581busi": 5175,
  "af": 5176,
  "\u2581distribut": 5177,
  "\u2581convent": 5178,
  "\u2581accumulat": 5179,
  "\u2581philadelphia": 5180,
  "\u2581revolt": 5181,
  "\u2581scotch": 5182,
  "\u2581subsequent": 5183,
  "\u2581smash": 5184,
  "\u2581soap": 5185,
  "\u2581damsel": 5186,
  "\u2581suitabl": 5187,
  "\u2581moses": 5188,
  "\u2581underne": 5189,
  "\u2581pri": 5190,
  "\u2581quin": 5191,
  "\u2581decline": 5192,
  "\u2581personage": 5193,
  "\u2581journal": 5194,
  "\u2581remembering": 5195,
  "\u2581savages": 5196,
  "\u2581butcher": 5197,
  "\u2581strap": 5198,
  "\u2581cathedral": 5199,
  "\u2581despatch": 5200,
  "\u2581embarrassment": 5201,
  "\u2581eternity": 5202,
  "\u2581january": 5203,
  "\u2581jerry": 5204,
  "\u2581jimmie": 5205,
  "\u2581fisherman": 5206,
  "\u2581ample": 5207,
  "\u2581jude": 5208,
  "\u2581parallel": 5209,
  "\u2581champion": 5210,
  "\u2581separation": 5211,
  "\u2581likeness": 5212,
  "lea": 5213,
  "\u2581highway": 5214,
  "\u2581guy": 5215,
  "\u2581ledge": 5216,
  "\u2581communicate": 5217,
  "break": 5218,
  "old": 5219,
  "\u2581actor": 5220,
  "\u2581contradict": 5221,
  "\u2581depress": 5222,
  "\u2581dispers": 5223,
  "\u2581draught": 5224,
  "\u2581jasper": 5225,
  "\u2581opponent": 5226,
  "\u2581primitive": 5227,
  "\u2581substantial": 5228,
  "\u2581commend": 5229,
  "\u2581digging": 5230,
  "\u2581dunbar": 5231,
  "\u2581significance": 5232,
  "\u2581cakes": 5233,
  "\u2581drug": 5234,
  "\u2581indication": 5235,
  "\u2581exile": 5236,
  "\u2581commit": 5237,
  "\u2581startling": 5238,
  "\u2581swu": 5239,
  "\u2581cows": 5240,
  "\u2581flee": 5241,
  "\u2581melod": 5242,
  "\u2581argue": 5243,
  "\u2581vary": 5244,
  "\u2581greatness": 5245,
  "\u2581bun": 5246,
  "\u2581waiter": 5247,
  "\u2581advertis": 5248,
  "\u2581adapt": 5249,
  "\u2581imperial": 5250,
  "\u2581calamit": 5251,
  "\u2581juice": 5252,
  "\u2581violat": 5253,
  "\u2581criticism": 5254,
  "\u2581republican": 5255,
  "\u2581dove": 5256,
  "\u2581aveng": 5257,
  "\u2581nursery": 5258,
  "\u2581amazed": 5259,
  "mmed": 5260,
  "\u2581fir": 5261,
  "\u2581access": 5262,
  "\u2581inherit": 5263,
  "\u2581chateau": 5264,
  "\u2581phoenix": 5265,
  "\u2581relax": 5266,
  "\u2581solution": 5267,
  "\u2581villefort": 5268,
  "\u2581smot": 5269,
  "\u2581gambl": 5270,
  "\u2581febr": 5271,
  "\u2581prudent": 5272,
  "\u2581quaint": 5273,
  "\u2581geograph": 5274,
  "\u2581snor": 5275,
  "\u2581cabinet": 5276,
  "\u2581reaction": 5277,
  "\u2581clergyman": 5278,
  "\u2581falter": 5279,
  "\u2581heroic": 5280,
  "\u2581babe": 5281,
  "\u2581swam": 5282,
  "\u2581wig": 5283,
  "gone": 5284,
  "ida": 5285,
  "\u2581pang": 5286,
  "\u2581marie": 5287,
  "\u2581favorabl": 5288,
  "\u2581wid": 5289,
  "\u2581hue": 5290,
  "\u2581brandy": 5291,
  "\u2581aught": 5292,
  "\u2581distrust": 5293,
  "\u2581generosit": 5294,
  "\u2581parlor": 5295,
  "\u2581lazy": 5296,
  "\u2581plunder": 5297,
  "\u2581navigat": 5298,
  "\u2581pok": 5299,
  "\u2581introduction": 5300,
  "\u2581horseback": 5301,
  "\u2581coachman": 5302,
  "\u2581scant": 5303,
  "itude": 5304,
  "\u2581policeman": 5305,
  "\u2581manager": 5306,
  "\u2581pasture": 5307,
  "\u2581trapp": 5308,
  "\u2581invite": 5309,
  "\u2581meek": 5310,
  "\u2581tenant": 5311,
  "\u2581organiz": 5312,
  "\u2581civiliz": 5313,
  "\u2581gru": 5314,
  "\u2581rack": 5315,
  "\u2581bleed": 5316,
  "\u2581grip": 5317,
  "\u2581nav": 5318,
  "\u2581discourage": 5319,
  "\u2581enlighten": 5320,
  "\u2581obstinate": 5321,
  "\u2581rejoicing": 5322,
  "\u2581vehicle": 5323,
  "\u2581illusion": 5324,
  "\u2581anthea": 5325,
  "\u2581martian": 5326,
  "\u2581sermon": 5327,
  "\u2581mike": 5328,
  "ctor": 5329,
  "\u2581acute": 5330,
  "ik": 5331,
  "\u2581priv": 5332,
  "\u2581willow": 5333,
  "\u2581discern": 5334,
  "\u2581implie": 5335,
  "\u2581mic": 5336,
  "\u2581realm": 5337,
  "\u2581dome": 5338,
  "\u2581roaring": 5339,
  "\u2581tooth": 5340,
  "\u2581trott": 5341,
  "\u2581academ": 5342,
  "\u2581suspens": 5343,
  "\u2581amazing": 5344,
  "\u2581internal": 5345,
  "\u2581cigarette": 5346,
  "\u2581kettle": 5347,
  "\u2581incense": 5348,
  "\u2581dependent": 5349,
  "\u2581lance": 5350,
  "\u2581attachment": 5351,
  "\u2581spott": 5352,
  "\u2581gre": 5353,
  "\u2581onion": 5354,
  "\u2581plank": 5355,
  "\u2581unhe": 5356,
  "bbe": 5357,
  "\u2581lame": 5358,
  "\u2581griev": 5359,
  "\u2581excite": 5360,
  "\u2581elevat": 5361,
  "\u2581scrutin": 5362,
  "\u2581incessant": 5363,
  "\u2581glen": 5364,
  "\u2581vexed": 5365,
  "\u2581parcel": 5366,
  "\u2581granite": 5367,
  "\u2581picturesque": 5368,
  "\u2581mexican": 5369,
  "\u2581token": 5370,
  "\u2581acid": 5371,
  "\u2581abundan": 5372,
  "\u2581surg": 5373,
  "\u2581plane": 5374,
  "\u2581yu": 5375,
  "\u2581tolerabl": 5376,
  "\u2581potatoe": 5377,
  "\u2581gravel": 5378,
  "\u2581mudd": 5379,
  "\u2581tumult": 5380,
  "\u2581embark": 5381,
  "\u2581senate": 5382,
  "\u2581contemptuous": 5383,
  "\u2581dignifie": 5384,
  "\u2581atlantic": 5385,
  "\u2581surgeon": 5386,
  "\u2581courtesy": 5387,
  "\u2581hencefor": 5388,
  "\u2581loaf": 5389,
  "\u2581cyril": 5390,
  "\u2581speck": 5391,
  "\u2581pont": 5392,
  "\u2581frock": 5393,
  "\u2581terrace": 5394,
  "\u2581abyss": 5395,
  "\u2581customar": 5396,
  "\u2581hopp": 5397,
  "\u2581coil": 5398,
  "\u2581tapp": 5399,
  "ua": 5400,
  "\u2581veni": 5401,
  "\u2581afflict": 5402,
  "\u2581administer": 5403,
  "\u2581apprehend": 5404,
  "\u2581dexter": 5405,
  "\u2581dominion": 5406,
  "\u2581eliza": 5407,
  "\u2581eyebrow": 5408,
  "\u2581intelligibl": 5409,
  "\u2581splash": 5410,
  "\u2581subdued": 5411,
  "\u2581conseil": 5412,
  "\u2581tragic": 5413,
  "\u2581architectur": 5414,
  "\u2581whisker": 5415,
  "\u2581tact": 5416,
  "sburg": 5417,
  "\u2581additional": 5418,
  "\u2581candles": 5419,
  "\u2581dolly": 5420,
  "\u2581bobby": 5421,
  "\u2581eric": 5422,
  "\u2581quivering": 5423,
  "coming": 5424,
  "rina": 5425,
  "\u2581bachelor": 5426,
  "\u2581defense": 5427,
  "\u2581excursion": 5428,
  "\u2581vacant": 5429,
  "\u2581gratify": 5430,
  "\u2581ounce": 5431,
  "\u2581sympathetic": 5432,
  "\u2581comfortabl": 5433,
  "\u2581screw": 5434,
  "\u2581yawn": 5435,
  "\u2581agnes": 5436,
  "\u2581identit": 5437,
  "\u2581unit": 5438,
  "\u2581afore": 5439,
  "\u2581proprietor": 5440,
  "\u2581casting": 5441,
  "\u2581gross": 5442,
  "\u2581lick": 5443,
  "\u2581restraint": 5444,
  "\u2581radiant": 5445,
  "fo": 5446,
  "\u2581julie": 5447,
  "\u2581spoon": 5448,
  "\u2581climate": 5449,
  "\u2581leslie": 5450,
  "\u2581phenomenon": 5451,
  "\u2581prominent": 5452,
  "\u2581bliss": 5453,
  "\u2581aramis": 5454,
  "\u2581jerus": 5455,
  "\u2581contend": 5456,
  "\u2581israel": 5457,
  "\u2581keith": 5458,
  "\u2581paste": 5459,
  "\u2581envi": 5460,
  "\u2581tint": 5461,
  "\u2581shatter": 5462,
  "\u2581spared": 5463,
  "\u2581plantation": 5464,
  "\u2581shallow": 5465,
  "\u2581marshal": 5466,
  "\u2581practis": 5467,
  "\u2581yer": 5468,
  "\u2581artistic": 5469,
  "\u2581archer": 5470,
  "\u2581harbor": 5471,
  "\u2581chariot": 5472,
  "\u2581hebrew": 5473,
  "\u2581provoke": 5474,
  "\u2581surpass": 5475,
  "\u2581temperament": 5476,
  "\u2581ninth": 5477,
  "\u2581liking": 5478,
  "bel": 5479,
  "\u2581creak": 5480,
  "\u2581falsehood": 5481,
  "\u2581kitten": 5482,
  "\u2581loom": 5483,
  "\u2581submitt": 5484,
  "\u2581stew": 5485,
  "\u2581construction": 5486,
  "\u2581alert": 5487,
  "\u2581prior": 5488,
  "\u2581youthful": 5489,
  "\u2581salute": 5490,
  "\u2581tray": 5491,
  "\u2581passive": 5492,
  "\u2581correspondence": 5493,
  "\u2581hymn": 5494,
  "\u2581undertaking": 5495,
  "\u2581mirth": 5496,
  "\u2581chorus": 5497,
  "\u2581particle": 5498,
  "\u2581console": 5499,
  "\u2581edison": 5500,
  "\u2581greas": 5501,
  "\u2581scout": 5502,
  "\u2581resentment": 5503,
  "\u2581attire": 5504,
  "\u2581associat": 5505,
  "\u2581intensit": 5506,
  "\u2581stem": 5507,
  "\u2581fr": 5508,
  "\u2581pun": 5509,
  "\u2581urge": 5510,
  "\u2581humbl": 5511,
  "\u2581kissing": 5512,
  "\u2581marching": 5513,
  "\u2581reel": 5514,
  "\u2581ol": 5515,
  "\u2581apparatus": 5516,
  "\u2581gospel": 5517,
  "\u2581flicker": 5518,
  "\u2581guinea": 5519,
  "\u2581review": 5520,
  "\u2581dixon": 5521,
  "\u2581constance": 5522,
  "\u2581nourish": 5523,
  "\u2581overtake": 5524,
  "\u2581gaunt": 5525,
  "\u2581revelation": 5526,
  "\u2581gleaming": 5527,
  "\u2581hazard": 5528,
  "\u2581curate": 5529,
  "\u2581encouragement": 5530,
  "\u2581illustration": 5531,
  "\u2581terminat": 5532,
  "\u2581vot": 5533,
  "\u2581loath": 5534,
  "\u2581formation": 5535,
  "ural": 5536,
  "\u2581crab": 5537,
  "\u2581maria": 5538,
  "\u2581deem": 5539,
  "\u2581improve": 5540,
  "\u2581elaborate": 5541,
  "\u2581chu": 5542,
  "ada": 5543,
  "\u2581parker": 5544,
  "iff": 5545,
  "\u2581impart": 5546,
  "\u2581aladdin": 5547,
  "\u2581chicago": 5548,
  "\u2581dagger": 5549,
  "\u2581disciple": 5550,
  "\u2581garrison": 5551,
  "\u2581hamilton": 5552,
  "\u2581tulliver": 5553,
  "\u2581chancellor": 5554,
  "\u2581proverb": 5555,
  "\u2581enforc": 5556,
  "\u2581traitor": 5557,
  "\u2581chapel": 5558,
  "cum": 5559,
  "ollen": 5560,
  "\u2581perce": 5561,
  "\u2581foresee": 5562,
  "\u2581gro": 5563,
  "\u2581commanding": 5564,
  "\u2581mur": 5565,
  "\u2581fashionable": 5566,
  "midst": 5567,
  "uch": 5568,
  "\u2581argu": 5569,
  "\u2581bitterness": 5570,
  "\u2581opera": 5571,
  "\u2581bower": 5572,
  "water": 5573,
  "\u2581lac": 5574,
  "\u2581confide": 5575,
  "\u2581greed": 5576,
  "\u2581chauvelin": 5577,
  "\u2581expert": 5578,
  "\u2581glimmer": 5579,
  "\u2581jungle": 5580,
  "\u2581streak": 5581,
  "\u2581volunteer": 5582,
  "\u2581dissolv": 5583,
  "\u2581sunrise": 5584,
  "\u2581defiance": 5585,
  "comb": 5586,
  "\u2581toad": 5587,
  "\u2581mantle": 5588,
  "\u2581observer": 5589,
  "\u2581rosa": 5590,
  "hand": 5591,
  "\u2581homeward": 5592,
  "\u2581chine": 5593,
  "\u2581handful": 5594,
  "\u2581missionar": 5595,
  "\u2581oppose": 5596,
  "\u2581burg": 5597,
  "\u2581workers": 5598,
  "\u2581kil": 5599,
  "\u2581glitter": 5600,
  "\u2581gai": 5601,
  "\u2581needn": 5602,
  "\u2581camel": 5603,
  "\u2581grin": 5604,
  "\u2581irritate": 5605,
  "\u2581legislature": 5606,
  "\u2581leonora": 5607,
  "\u2581magazine": 5608,
  "\u2581fiddle": 5609,
  "\u2581intimac": 5610,
  "\u2581complicate": 5611,
  "\u2581colony": 5612,
  "\u2581unkind": 5613,
  "\u2581empti": 5614,
  "\u2581pitiful": 5615,
  "\u2581persever": 5616,
  "born": 5617,
  "\u2581persistent": 5618,
  "\u2581disturbance": 5619,
  "\u2581tiding": 5620,
  "\u2581speculation": 5621,
  "\u2581berth": 5622,
  "\u2581courtier": 5623,
  "\u2581armour": 5624,
  "\u2581quest": 5625,
  "\u2581felicity": 5626,
  "ilit": 5627,
  "hon": 5628,
  "\u2581brac": 5629,
  "\u2581era": 5630,
  "\u2581haz": 5631,
  "\u2581shawl": 5632,
  "\u2581hart": 5633,
  "\u2581adjust": 5634,
  "\u2581resent": 5635,
  "\u2581carpenter": 5636,
  "\u2581expand": 5637,
  "\u2581fundamental": 5638,
  "\u2581innumerabl": 5639,
  "\u2581harvest": 5640,
  "\u2581overflow": 5641,
  "\u2581courteous": 5642,
  "\u2581fisher": 5643,
  "\u2581lark": 5644,
  "\u2581cash": 5645,
  "\u2581whispering": 5646,
  "\u2581stripp": 5647,
  "\u2581measur": 5648,
  "\u2581pious": 5649,
  "ular": 5650,
  "\u2581jam": 5651,
  "\u2581sentimental": 5652,
  "\u2581flashing": 5653,
  "char": 5654,
  "\u2581crooked": 5655,
  "berg": 5656,
  "\u2581reporter": 5657,
  "\u2581pop": 5658,
  "\u2581converse": 5659,
  "\u2581facilit": 5660,
  "\u2581feminine": 5661,
  "\u2581scramble": 5662,
  "\u2581twentieth": 5663,
  "\u2581daniel": 5664,
  "\u2581chuck": 5665,
  "\u2581conquest": 5666,
  "\u2581isabella": 5667,
  "\u2581vest": 5668,
  "\u2581forsake": 5669,
  "\u2581belle": 5670,
  "\u2581ghastl": 5671,
  "\u2581odor": 5672,
  "\u2581gem": 5673,
  "\u2581ladyship": 5674,
  "\u2581robes": 5675,
  "\u2581butterfly": 5676,
  "\u2581plato": 5677,
  "az": 5678,
  "\u2581myles": 5679,
  "\u2581trod": 5680,
  "\u2581topic": 5681,
  "\u2581corrupt": 5682,
  "\u2581disdain": 5683,
  "\u2581adjoin": 5684,
  "\u2581perceptibl": 5685,
  "\u2581rainbow": 5686,
  "\u2581decree": 5687,
  "\u2581strew": 5688,
  "\u2581behaviour": 5689,
  "\u2581gorgeous": 5690,
  "\u2581finer": 5691,
  "\u2581thor": 5692,
  "\u2581copie": 5693,
  "cher": 5694,
  "\u2581foli": 5695,
  "\u2581regrett": 5696,
  "\u2581toast": 5697,
  "\u2581befall": 5698,
  "\u2581blaze": 5699,
  "igh": 5700,
  "\u2581indulg": 5701,
  "\u2581dam": 5702,
  "\u2581washing": 5703,
  "\u2581sobb": 5704,
  "\u2581pharaoh": 5705,
  "\u2581refined": 5706,
  "\u2581unnatural": 5707,
  "\u2581invalid": 5708,
  "\u2581venerabl": 5709,
  "\u2581alliance": 5710,
  "\u2581repress": 5711,
  "\u2581trench": 5712,
  "\u2581dramatic": 5713,
  "\u2581audibl": 5714,
  "\u2581ditch": 5715,
  "\u2581menace": 5716,
  "\u2581irresistible": 5717,
  "\u2581inventor": 5718,
  "\u2581hark": 5719,
  "\u2581fulfil": 5720,
  "\u2581watchful": 5721,
  "\u2581sara": 5722,
  "\u2581boss": 5723,
  "\u2581goin": 5724,
  "\u2581knitt": 5725,
  "\u2581controll": 5726,
  "\u2581cursed": 5727,
  "\u2581pint": 5728,
  "\u2581cru": 5729,
  "\u2581translat": 5730,
  "guard": 5731,
  "\u2581snap": 5732,
  "\u2581morn": 5733,
  "\u2581barricade": 5734,
  "\u2581circulat": 5735,
  "\u2581scoundrel": 5736,
  "\u2581bruce": 5737,
  "\u2581distort": 5738,
  "\u2581samuel": 5739,
  "\u2581suffrage": 5740,
  "\u2581hypothes": 5741,
  "\u2581strive": 5742,
  "\u2581deceas": 5743,
  "\u2581cradle": 5744,
  "\u2581bump": 5745,
  "\u2581wendy": 5746,
  "\u2581darcy": 5747,
  "\u2581blunt": 5748,
  "\u2581bomb": 5749,
  "\u2581spake": 5750,
  "\u2581foster": 5751,
  "\u2581ginger": 5752,
  "\u2581estimate": 5753,
  "\u2581augustine": 5754,
  "\u2581lump": 5755,
  "\u2581infantry": 5756,
  "\u2581uneasiness": 5757,
  "\u2581necessit": 5758,
  "cular": 5759,
  "\u2581oat": 5760,
  "\u2581clair": 5761,
  "\u2581workman": 5762,
  "\u2581pane": 5763,
  "\u2581tuck": 5764,
  "\u2581tranquil": 5765,
  "\u2581cheat": 5766,
  "think": 5767,
  "\u2581brim": 5768,
  "j": 5769,
  "\u2581ambitious": 5770,
  "\u2581confederate": 5771,
  "\u2581splendor": 5772,
  "\u2581tuesday": 5773,
  "\u2581virtuous": 5774,
  "\u2581enlarg": 5775,
  "\u2581sexual": 5776,
  "\u2581buffalo": 5777,
  "\u2581energetic": 5778,
  "\u2581luncheon": 5779,
  "\u2581flint": 5780,
  "\u2581humming": 5781,
  "\u2581beckon": 5782,
  "\u2581grunt": 5783,
  "\u2581mabel": 5784,
  "\u2581interpretation": 5785,
  "\u2581fertil": 5786,
  "\u2581slop": 5787,
  "\u2581cargo": 5788,
  "\u2581popp": 5789,
  "\u2581rul": 5790,
  "hurst": 5791,
  "\u2581fling": 5792,
  "\u2581harmless": 5793,
  "\u2581chatt": 5794,
  "\u2581tumble": 5795,
  "\u2581include": 5796,
  "\u2581fuss": 5797,
  "\u2581ponder": 5798,
  "\u2581patty": 5799,
  "\u2581hopeful": 5800,
  "\u2581exchang": 5801,
  "\u2581fringe": 5802,
  "\u2581panting": 5803,
  "\u2581pra": 5804,
  "\u2581multipli": 5805,
  "\u2581negative": 5806,
  "\u2581petition": 5807,
  "\u2581compact": 5808,
  "\u2581ingenious": 5809,
  "\u2581persian": 5810,
  "\u2581petersburg": 5811,
  "\u2581imitation": 5812,
  "\u2581barbara": 5813,
  "\u2581chart": 5814,
  "\u2581boom": 5815,
  "\u2581massive": 5816,
  "\u2581plump": 5817,
  "\u2581carol": 5818,
  "\u2581logical": 5819,
  "\u2581soak": 5820,
  "\u2581hardship": 5821,
  "\u2581sweeping": 5822,
  "\u2581rattle": 5823,
  "\u2581brig": 5824,
  "\u2581sue": 5825,
  "\u2581displeas": 5826,
  "\u2581calculation": 5827,
  "\u2581circuit": 5828,
  "\u2581conform": 5829,
  "\u2581exclud": 5830,
  "\u2581extinguish": 5831,
  "\u2581vent": 5832,
  "\u2581witnesse": 5833,
  "\u2581intolerabl": 5834,
  "\u2581accomplishment": 5835,
  "\u2581panic": 5836,
  "\u2581hospitality": 5837,
  "\u2581carries": 5838,
  "\u2581advis": 5839,
  "\u2581jug": 5840,
  "\u2581continuous": 5841,
  "sight": 5842,
  "\u2581sage": 5843,
  "\u2581sab": 5844,
  "q": 5845,
  "\u2581levi": 5846,
  "dale": 5847,
  "\u2581dean": 5848,
  "\u2581stud": 5849,
  "\u2581stimulat": 5850,
  "\u2581marcella": 5851,
  "\u2581dissipat": 5852,
  "\u2581animated": 5853,
  "\u2581indulgence": 5854,
  "\u2581courtyard": 5855,
  "\u2581patent": 5856,
  "\u2581promising": 5857,
  "\u2581successive": 5858,
  "\u2581jet": 5859,
  "\u2581worshipp": 5860,
  "\u2581presid": 5861,
  "\u2581sobbing": 5862,
  "\u2581tub": 5863,
  "dding": 5864,
  "\u2581pall": 5865,
  "berry": 5866,
  "\u2581armie": 5867,
  "cho": 5868,
  "\u2581tam": 5869,
  "\u2581connect": 5870,
  "\u2581legg": 5871,
  "\u2581tro": 5872,
  "\u2581hip": 5873,
  "\u2581hatch": 5874,
  "\u2581exceptional": 5875,
  "\u2581torch": 5876,
  "\u2581admission": 5877,
  "\u2581apostle": 5878,
  "\u2581fugitive": 5879,
  "\u2581register": 5880,
  "\u2581wednesday": 5881,
  "\u2581sinister": 5882,
  "\u2581museum": 5883,
  "\u2581expir": 5884,
  "\u2581clums": 5885,
  "\u2581helmet": 5886,
  "\u2581allusion": 5887,
  "\u2581tommy": 5888,
  "\u2581fireplace": 5889,
  "\u2581esther": 5890,
  "\u2581beech": 5891,
  "\u2581steed": 5892,
  "\u2581alien": 5893,
  "\u2581ivor": 5894,
  "\u2581attribut": 5895,
  "\u2581curt": 5896,
  "\u2581specific": 5897,
  "\u2581efficient": 5898,
  "\u2581tract": 5899,
  "\u2581edi": 5900,
  "\u2581um": 5901,
  "ora": 5902,
  "\u2581primar": 5903,
  "\u2581regulat": 5904,
  "\u2581champ": 5905,
  "\u2581vol": 5906,
  "\u2581astronom": 5907,
  "\u2581definition": 5908,
  "\u2581dismount": 5909,
  "\u2581simultaneous": 5910,
  "\u2581twig": 5911,
  "\u2581orphan": 5912,
  "\u2581abbe": 5913,
  "\u2581freed": 5914,
  "\u2581transferr": 5915,
  "\u2581inspiration": 5916,
  "\u2581promot": 5917,
  "\u2581perplexit": 5918,
  "\u2581dodg": 5919,
  "\u2581exhibition": 5920,
  "\u2581stra": 5921,
  "\u2581tho": 5922,
  "\u2581wagg": 5923,
  "\u2581spinn": 5924,
  "woman": 5925,
  "var": 5926,
  "\u2581buzz": 5927,
  "\u2581earthquake": 5928,
  "\u2581embarrassed": 5929,
  "\u2581expensive": 5930,
  "\u2581exploit": 5931,
  "\u2581hesitating": 5932,
  "\u2581overpower": 5933,
  "\u2581watson": 5934,
  "\u2581higgins": 5935,
  "\u2581unluck": 5936,
  "\u2581conceit": 5937,
  "\u2581wondrous": 5938,
  "\u2581snuff": 5939,
  "\u2581session": 5940,
  "\u2581divert": 5941,
  "\u2581cass": 5942,
  "\u2581cupboard": 5943,
  "\u2581swan": 5944,
  "\u2581westward": 5945,
  "\u2581analysi": 5946,
  "\u2581demonstration": 5947,
  "\u2581feverish": 5948,
  "\u2581alley": 5949,
  "\u2581contemplation": 5950,
  "\u2581andrea": 5951,
  "\u2581kindred": 5952,
  "ood": 5953,
  "\u2581manufactur": 5954,
  "\u2581nurs": 5955,
  "\u2581kara": 5956,
  "\u2581pap": 5957,
  "\u2581substitute": 5958,
  "\u2581sprinkle": 5959,
  "\u2581cable": 5960,
  "\u2581brighten": 5961,
  "\u2581gill": 5962,
  "\u2581disaster": 5963,
  "\u2581discontent": 5964,
  "\u2581lanyard": 5965,
  "\u2581pencroft": 5966,
  "\u2581plaster": 5967,
  "\u2581predict": 5968,
  "\u2581saxon": 5969,
  "\u2581stammer": 5970,
  "\u2581transparent": 5971,
  "\u2581diploma": 5972,
  "\u2581furnace": 5973,
  "\u2581necklace": 5974,
  "\u2581annual": 5975,
  "\u2581celia": 5976,
  "\u2581intrud": 5977,
  "\u2581margin": 5978,
  "\u2581frenz": 5979,
  "\u2581winchester": 5980,
  "\u2581evan": 5981,
  "\u2581vicar": 5982,
  "\u2581vexation": 5983,
  "\u2581percy": 5984,
  "\u2581elevation": 5985,
  "\u2581hack": 5986,
  "quest": 5987,
  "\u2581stealth": 5988,
  "ingham": 5989,
  "\u2581punch": 5990,
  "\u2581knit": 5991,
  "\u2581idol": 5992,
  "\u2581eloquen": 5993,
  "\u2581harden": 5994,
  "\u2581fret": 5995,
  "\u2581gable": 5996,
  "bird": 5997,
  "\u2581unity": 5998,
  "pool": 5999,
  "\u2581majestic": 6000,
  "\u2581skeleton": 6001,
  "\u2581verloc": 6002,
  "\u2581divorce": 6003,
  "\u2581tavern": 6004,
  "\u2581impuden": 6005,
  "\u2581wreath": 6006,
  "\u2581governess": 6007,
  "\u2581lumber": 6008,
  "\u2581formula": 6009,
  "\u2581marvelous": 6010,
  "\u2581historical": 6011,
  "\u2581witt": 6012,
  "\u2581rak": 6013,
  "\u2581chim": 6014,
  "uk": 6015,
  "\u2581despis": 6016,
  "\u2581conn": 6017,
  "aday": 6018,
  "ott": 6019,
  "arch": 6020,
  "\u2581corresponding": 6021,
  "\u2581biscuit": 6022,
  "\u2581bruis": 6023,
  "\u2581consumption": 6024,
  "\u2581henrietta": 6025,
  "\u2581candidate": 6026,
  "\u2581packet": 6027,
  "\u2581devis": 6028,
  "\u2581winning": 6029,
  "\u2581hobb": 6030,
  "\u2581fearless": 6031,
  "\u2581mysterie": 6032,
  "\u2581feat": 6033,
  "\u2581file": 6034,
  "\u2581oxen": 6035,
  "\u2581cho": 6036,
  "\u2581jove": 6037,
  "\u2581dresse": 6038,
  "\u2581weaken": 6039,
  "\u2581jess": 6040,
  "\u2581waver": 6041,
  "\u2581helm": 6042,
  "\u2581bessy": 6043,
  "\u2581recognise": 6044,
  "\u2581cam": 6045,
  "\u2581wegg": 6046,
  "cloth": 6047,
  "\u2581undergo": 6048,
  "tail": 6049,
  "\u2581applause": 6050,
  "\u2581gabriel": 6051,
  "\u2581languid": 6052,
  "\u2581scripture": 6053,
  "\u2581striving": 6054,
  "\u2581superstition": 6055,
  "\u2581telegram": 6056,
  "\u2581fiend": 6057,
  "\u2581monaster": 6058,
  "\u2581spider": 6059,
  "\u2581gratification": 6060,
  "\u2581navy": 6061,
  "\u2581undi": 6062,
  "\u2581crisp": 6063,
  "\u2581wag": 6064,
  "\u2581barren": 6065,
  "\u2581dad": 6066,
  "ini": 6067,
  "\u2581loan": 6068,
  "\u2581jail": 6069,
  "odious": 6070,
  "\u2581signor": 6071,
  "\u2581debate": 6072,
  "\u2581marine": 6073,
  "\u2581demonstrat": 6074,
  "\u2581conference": 6075,
  "\u2581constrain": 6076,
  "\u2581everlasting": 6077,
  "\u2581prostrate": 6078,
  "\u2581sniff": 6079,
  "\u2581socrates": 6080,
  "\u2581vizier": 6081,
  "\u2581gild": 6082,
  "\u2581clark": 6083,
  "\u2581tilney": 6084,
  "\u2581clement": 6085,
  "\u2581penalt": 6086,
  "\u2581oxford": 6087,
  "\u2581fiction": 6088,
  "\u2581confidential": 6089,
  "\u2581hermit": 6090,
  "\u2581chew": 6091,
  "much": 6092,
  "\u2581thorpe": 6093,
  "\u2581auto": 6094,
  "\u2581confine": 6095,
  "\u2581fern": 6096,
  "\u2581loosen": 6097,
  "strode": 6098,
  "\u2581relic": 6099,
  "\u2581pear": 6100,
  "\u2581parson": 6101,
  "\u2581advocate": 6102,
  "\u2581almighty": 6103,
  "\u2581decisive": 6104,
  "\u2581precipice": 6105,
  "\u2581ravine": 6106,
  "\u2581restaurant": 6107,
  "\u2581tablespoonful": 6108,
  "\u2581lurk": 6109,
  "\u2581muffl": 6110,
  "\u2581otto": 6111,
  "\u2581otter": 6112,
  "\u2581cruis": 6113,
  "\u2581comte": 6114,
  "\u2581hover": 6115,
  "\u2581spray": 6116,
  "\u2581satin": 6117,
  "\u2581tumbled": 6118,
  "\u2581trimm": 6119,
  "\u2581clergy": 6120,
  "\u2581dispatch": 6121,
  "\u2581freckle": 6122,
  "\u2581nostril": 6123,
  "\u2581tunnel": 6124,
  "\u2581terrier": 6125,
  "\u2581beseech": 6126,
  "\u2581wallace": 6127,
  "\u2581harold": 6128,
  "\u2581saloon": 6129,
  "\u2581superintendent": 6130,
  "\u2581sap": 6131,
  "\u2581industrial": 6132,
  "\u2581annoyance": 6133,
  "\u2581victoria": 6134,
  "\u2581pill": 6135,
  "\u2581paddl": 6136,
  "\u2581obedient": 6137,
  "\u2581shutter": 6138,
  "\u2581sally": 6139,
  "\u2581fain": 6140,
  "\u2581bog": 6141,
  "\u2581ku": 6142,
  "\u2581haw": 6143,
  "agne": 6144,
  "\u2581trader": 6145,
  "\u2581exercis": 6146,
  "master": 6147,
  "\u2581whatso": 6148,
  "\u2581imprison": 6149,
  "\u2581economy": 6150,
  "\u2581hereafter": 6151,
  "\u2581mammy": 6152,
  "\u2581reappear": 6153,
  "\u2581scruple": 6154,
  "\u2581signature": 6155,
  "\u2581dinsmore": 6156,
  "\u2581outlaw": 6157,
  "\u2581dispens": 6158,
  "\u2581switch": 6159,
  "\u2581click": 6160,
  "dder": 6161,
  "\u2581calf": 6162,
  "\u2581interruption": 6163,
  "\u2581jaw": 6164,
  "\u2581utterance": 6165,
  "\u2581respective": 6166,
  "\u2581personalit": 6167,
  "\u2581gull": 6168,
  "\u2581momentar": 6169,
  "\u2581blushing": 6170,
  "\u2581ruby": 6171,
  "\u2581unhappi": 6172,
  "\u2581nodding": 6173,
  "\u2581pilgrim": 6174,
  "\u2581disadvantage": 6175,
  "\u2581eccentric": 6176,
  "\u2581banquet": 6177,
  "\u2581sentinel": 6178,
  "\u2581coroner": 6179,
  "\u2581indefinite": 6180,
  "\u2581pigeon": 6181,
  "\u2581strand": 6182,
  "\u2581ascent": 6183,
  "\u2581commonplace": 6184,
  "\u2581birthday": 6185,
  "\u2581bacon": 6186,
  "\u2581rustling": 6187,
  "\u2581slide": 6188,
  "\u2581hostess": 6189,
  "\u2581placid": 6190,
  "\u2581sour": 6191,
  "\u2581canyon": 6192,
  "\u2581compli": 6193,
  "\u2581fuel": 6194,
  "\u2581athos": 6195,
  "\u2581adj": 6196,
  "\u2581practise": 6197,
  "\u2581coral": 6198,
  "sail": 6199,
  "\u2581indulge": 6200,
  "\u2581elm": 6201,
  "\u2581alleg": 6202,
  "\u2581laborer": 6203,
  "\u2581pav": 6204,
  "\u2581revolutionar": 6205,
  "iah": 6206,
  "\u2581pitt": 6207,
  "\u2581outrage": 6208,
  "\u2581tim": 6209,
  "\u2581prophec": 6210,
  "\u2581discretion": 6211,
  "\u2581expedient": 6212,
  "\u2581lizzie": 6213,
  "\u2581mississippi": 6214,
  "\u2581rostov": 6215,
  "\u2581senior": 6216,
  "\u2581phase": 6217,
  "\u2581clue": 6218,
  "\u2581shabb": 6219,
  "\u2581effectual": 6220,
  "\u2581jelly": 6221,
  "\u2581balcon": 6222,
  "\u2581caroline": 6223,
  "\u2581edition": 6224,
  "\u2581solicit": 6225,
  "\u2581overhear": 6226,
  "\u2581scornful": 6227,
  "\u2581refreshment": 6228,
  "\u2581impressive": 6229,
  "\u2581southward": 6230,
  "\u2581pitcher": 6231,
  "\u2581abide": 6232,
  "\u2581contradiction": 6233,
  "\u2581candid": 6234,
  "\u2581rebellion": 6235,
  "\u2581sect": 6236,
  "enne": 6237,
  "\u2581rustle": 6238,
  "\u2581foreigner": 6239,
  "\u2581rend": 6240,
  "\u2581operate": 6241,
  "\u2581organis": 6242,
  "\u2581dar": 6243,
  "\u2581signifie": 6244,
  "\u2581sacrific": 6245,
  "\u2581treacher": 6246,
  "\u2581alexey": 6247,
  "\u2581drows": 6248,
  "\u2581neutral": 6249,
  "\u2581pebble": 6250,
  "\u2581phantom": 6251,
  "\u2581renown": 6252,
  "\u2581intoxicat": 6253,
  "\u2581preference": 6254,
  "\u2581appall": 6255,
  "\u2581alternate": 6256,
  "\u2581blunder": 6257,
  "\u2581daddy": 6258,
  "\u2581matron": 6259,
  "\u2581santa": 6260,
  "\u2581riot": 6261,
  "rches": 6262,
  "\u2581avert": 6263,
  "\u2581tank": 6264,
  "\u2581gust": 6265,
  "\u2581conqueror": 6266,
  "\u2581refusal": 6267,
  "\u2581gait": 6268,
  "\u2581tipp": 6269,
  "\u2581payment": 6270,
  "burg": 6271,
  "\u2581duel": 6272,
  "\u2581australia": 6273,
  "\u2581explosion": 6274,
  "\u2581historian": 6275,
  "\u2581achievement": 6276,
  "\u2581announcement": 6277,
  "\u2581jeff": 6278,
  "\u2581fortress": 6279,
  "\u2581barbarous": 6280,
  "\u2581urgent": 6281,
  "\u2581northward": 6282,
  "ological": 6283,
  "\u2581soothing": 6284,
  "\u2581bored": 6285,
  "\u2581expressive": 6286,
  "\u2581juliet": 6287,
  "\u2581fifteenth": 6288,
  "\u2581olive": 6289,
  "\u2581tranquill": 6290,
  "\u2581lava": 6291,
  "ani": 6292,
  "\u2581successor": 6293,
  "\u2581preacher": 6294,
  "\u2581lacking": 6295,
  "\u2581pul": 6296,
  "fellow": 6297,
  "\u2581contribute": 6298,
  "\u2581adventurer": 6299,
  "\u2581disregard": 6300,
  "\u2581extravagant": 6301,
  "\u2581festival": 6302,
  "\u2581graduat": 6303,
  "\u2581hyacinth": 6304,
  "\u2581sulphur": 6305,
  "\u2581martyr": 6306,
  "\u2581advertisement": 6307,
  "\u2581vegetati": 6308,
  "\u2581implore": 6309,
  "\u2581uproar": 6310,
  "\u2581mound": 6311,
  "\u2581stride": 6312,
  "chu": 6313,
  "\u2581lugg": 6314,
  "\u2581rippl": 6315,
  "\u2581yoke": 6316,
  "\u2581litter": 6317,
  "\u2581conventional": 6318,
  "\u2581ojo": 6319,
  "\u2581chip": 6320,
  "\u2581operat": 6321,
  "\u2581gra": 6322,
  "mphi": 6323,
  "\u2581dori": 6324,
  "\u2581vale": 6325,
  "boat": 6326,
  "\u2581repuls": 6327,
  "\u2581condescend": 6328,
  "\u2581disapprov": 6329,
  "\u2581insolent": 6330,
  "\u2581accusation": 6331,
  "\u2581illustri": 6332,
  "\u2581revenue": 6333,
  "\u2581sacrament": 6334,
  "\u2581fidel": 6335,
  "\u2581holmes": 6336,
  "\u2581ankle": 6337,
  "\u2581hamlet": 6338,
  "\u2581adher": 6339,
  "\u2581turf": 6340,
  "\u2581breech": 6341,
  "\u2581revel": 6342,
  "\u2581frail": 6343,
  "\u2581lingering": 6344,
  "\u2581sham": 6345,
  "\u2581cask": 6346,
  "mination": 6347,
  "\u2581breadth": 6348,
  "\u2581baker": 6349,
  "\u2581favourabl": 6350,
  "\u2581emergenc": 6351,
  "\u2581dye": 6352,
  "\u2581nell": 6353,
  "\u2581shaw": 6354,
  "\u2581strok": 6355,
  "oli": 6356,
  "\u2581unti": 6357,
  "\u2581inflam": 6358,
  "shaw": 6359,
  "\u2581text": 6360,
  "\u2581grotesque": 6361,
  "\u2581clump": 6362,
  "\u2581gnaw": 6363,
  "\u2581inconvenience": 6364,
  "\u2581overthrow": 6365,
  "\u2581deput": 6366,
  "\u2581stunn": 6367,
  "\u2581thenardier": 6368,
  "\u2581reef": 6369,
  "\u2581girdle": 6370,
  "\u2581lynde": 6371,
  "\u2581arabella": 6372,
  "\u2581beryl": 6373,
  "\u2581bucket": 6374,
  "\u2581muslin": 6375,
  "\u2581prosperous": 6376,
  "\u2581forgiven": 6377,
  "\u2581unfold": 6378,
  "\u2581spectr": 6379,
  "mitten": 6380,
  "\u2581milan": 6381,
  "\u2581grieve": 6382,
  "\u2581allowance": 6383,
  "ula": 6384,
  "emost": 6385,
  "\u2581letty": 6386,
  "agement": 6387,
  "\u2581radian": 6388,
  "\u2581panel": 6389,
  "\u2581dal": 6390,
  "forehand": 6391,
  "\u2581chao": 6392,
  "\u2581musician": 6393,
  "bert": 6394,
  "\u2581tit": 6395,
  "\u2581mah": 6396,
  "court": 6397,
  "\u2581pic": 6398,
  "\u2581piercing": 6399,
  "\u2581musket": 6400,
  "urance": 6401,
  "\u2581prescrib": 6402,
  "\u2581alternative": 6403,
  "\u2581asylum": 6404,
  "\u2581coax": 6405,
  "\u2581grushenka": 6406,
  "\u2581legitimate": 6407,
  "\u2581supposition": 6408,
  "\u2581thursday": 6409,
  "\u2581tribute": 6410,
  "\u2581edwin": 6411,
  "\u2581pretence": 6412,
  "\u2581horace": 6413,
  "\u2581moth": 6414,
  "\u2581infect": 6415,
  "\u2581essay": 6416,
  "\u2581discreet": 6417,
  "\u2581booth": 6418,
  "\u2581vile": 6419,
  "\u2581terrific": 6420,
  "\u2581saul": 6421,
  "\u2581contribut": 6422,
  "\u2581unlock": 6423,
  "\u2581alteration": 6424,
  "ddling": 6425,
  "\u2581seventeenth": 6426,
  "\u2581rite": 6427,
  "\u2581beak": 6428,
  "\u2581sill": 6429,
  "\u2581fishe": 6430,
  "\u2581allison": 6431,
  "\u2581experienc": 6432,
  "\u2581cone": 6433,
  "\u2581undo": 6434,
  "\u2581austria": 6435,
  "\u2581chalk": 6436,
  "\u2581compound": 6437,
  "\u2581compromise": 6438,
  "\u2581douglas": 6439,
  "\u2581emerald": 6440,
  "\u2581valiant": 6441,
  "\u2581charlie": 6442,
  "\u2581vicin": 6443,
  "\u2581chivalr": 6444,
  "\u2581forbear": 6445,
  "\u2581michel": 6446,
  "\u2581monotonous": 6447,
  "\u2581mason": 6448,
  "\u2581obstruct": 6449,
  "\u2581malice": 6450,
  "\u2581var": 6451,
  "\u2581grade": 6452,
  "jah": 6453,
  "loft": 6454,
  "\u2581nobleman": 6455,
  "\u2581deepen": 6456,
  "\u2581devote": 6457,
  "chester": 6458,
  "\u2581heathen": 6459,
  "itch": 6460,
  "\u2581encouraging": 6461,
  "\u2581gwynplaine": 6462,
  "\u2581indescribabl": 6463,
  "\u2581junior": 6464,
  "\u2581splendour": 6465,
  "\u2581cherry": 6466,
  "\u2581usurp": 6467,
  "\u2581grandeur": 6468,
  "\u2581correspond": 6469,
  "\u2581elapse": 6470,
  "\u2581hap": 6471,
  "\u2581bellow": 6472,
  "\u2581merce": 6473,
  "\u2581petty": 6474,
  "\u2581oppression": 6475,
  "position": 6476,
  "\u2581herald": 6477,
  "\u2581representation": 6478,
  "\u2581quicken": 6479,
  "\u2581usher": 6480,
  "\u2581bunn": 6481,
  "hall": 6482,
  "ization": 6483,
  "\u2581executioner": 6484,
  "\u2581thickness": 6485,
  "\u2581pier": 6486,
  "\u2581lavish": 6487,
  "\u2581vicious": 6488,
  "\u2581artillery": 6489,
  "\u2581bumble": 6490,
  "\u2581convenience": 6491,
  "\u2581cossack": 6492,
  "\u2581dazzling": 6493,
  "\u2581ecstas": 6494,
  "\u2581forthwith": 6495,
  "\u2581henriette": 6496,
  "\u2581pyramid": 6497,
  "\u2581repetition": 6498,
  "\u2581saunders": 6499,
  "\u2581glee": 6500,
  "\u2581orlean": 6501,
  "\u2581prodigious": 6502,
  "\u2581beaver": 6503,
  "\u2581riddle": 6504,
  "\u2581deprive": 6505,
  "\u2581brake": 6506,
  "\u2581finn": 6507,
  "away": 6508,
  "\u2581musing": 6509,
  "\u2581superb": 6510,
  "ima": 6511,
  "\u2581consumed": 6512,
  "\u2581easter": 6513,
  "\u2581footman": 6514,
  "\u2581efficien": 6515,
  "\u2581manhood": 6516,
  "\u2581fluttering": 6517,
  "\u2581assail": 6518,
  "\u2581exult": 6519,
  "fresh": 6520,
  "ople": 6521,
  "ara": 6522,
  "\u2581bard": 6523,
  "\u2581glisten": 6524,
  "\u2581catastrophe": 6525,
  "\u2581equipp": 6526,
  "\u2581evolution": 6527,
  "\u2581jonathan": 6528,
  "\u2581renounc": 6529,
  "\u2581rouble": 6530,
  "\u2581elinor": 6531,
  "\u2581sombre": 6532,
  "\u2581trivial": 6533,
  "\u2581wiggily": 6534,
  "\u2581imposing": 6535,
  "\u2581sturd": 6536,
  "\u2581eventual": 6537,
  "ibilit": 6538,
  "\u2581scour": 6539,
  "\u2581blake": 6540,
  "\u2581treacherous": 6541,
  "\u2581repentance": 6542,
  "\u2581barbarian": 6543,
  "\u2581code": 6544,
  "\u2581mystic": 6545,
  "\u2581clatter": 6546,
  "\u2581vase": 6547,
  "\u2581lever": 6548,
  "\u2581git": 6549,
  "\u2581lessen": 6550,
  "\u2581ranch": 6551,
  "\u2581straighten": 6552,
  "\u2581gum": 6553,
  "\u2581peculiarit": 6554,
  "\u2581locat": 6555,
  "\u2581whisk": 6556,
  "\u2581inevitab": 6557,
  "\u2581wipe": 6558,
  "\u2581automatic": 6559,
  "\u2581democrac": 6560,
  "\u2581guarantee": 6561,
  "\u2581perspir": 6562,
  "\u2581ridicule": 6563,
  "\u2581stubborn": 6564,
  "\u2581treason": 6565,
  "\u2581besieg": 6566,
  "\u2581tuft": 6567,
  "\u2581puritan": 6568,
  "\u2581marianne": 6569,
  "\u2581relationship": 6570,
  "\u2581bristl": 6571,
  "\u2581package": 6572,
  "\u2581stro": 6573,
  "\u2581quarrell": 6574,
  "\u2581infer": 6575,
  "\u2581roam": 6576,
  "\u2581sixteenth": 6577,
  "\u2581airship": 6578,
  "\u2581mocking": 6579,
  "\u2581barber": 6580,
  "\u2581ceremonie": 6581,
  "\u2581satan": 6582,
  "\u2581verge": 6583,
  "udge": 6584,
  "\u2581contemporar": 6585,
  "\u2581devout": 6586,
  "\u2581synonym": 6587,
  "\u2581tremulous": 6588,
  "\u2581antiquit": 6589,
  "\u2581scrub": 6590,
  "\u2581senor": 6591,
  "\u2581peck": 6592,
  "\u2581cyr": 6593,
  "\u2581aristocratic": 6594,
  "\u2581severit": 6595,
  "\u2581pike": 6596,
  "\u2581wholesome": 6597,
  "\u2581lawful": 6598,
  "\u2581tries": 6599,
  "\u2581eloquent": 6600,
  "\u2581revolv": 6601,
  "itious": 6602,
  "\u2581poster": 6603,
  "\u2581magnet": 6604,
  "\u2581stab": 6605,
  "\u2581mexic": 6606,
  "\u2581trait": 6607,
  "\u2581caravan": 6608,
  "\u2581defarge": 6609,
  "\u2581precipitat": 6610,
  "\u2581requisite": 6611,
  "\u2581shirley": 6612,
  "\u2581shroud": 6613,
  "\u2581lewis": 6614,
  "\u2581parrot": 6615,
  "\u2581parsley": 6616,
  "\u2581eyelid": 6617,
  "\u2581unfit": 6618,
  "\u2581skipp": 6619,
  "\u2581operator": 6620,
  "\u2581resignation": 6621,
  "\u2581frontier": 6622,
  "\u2581bandit": 6623,
  "\u2581spit": 6624,
  "\u2581irre": 6625,
  "\u2581judi": 6626,
  "\u2581maud": 6627,
  "\u2581kha": 6628,
  "\u2581zo": 6629,
  "\u2581athen": 6630,
  "cross": 6631,
  "\u2581employer": 6632,
  "\u2581boar": 6633,
  "\u2581abbey": 6634,
  "maker": 6635,
  "\u2581chop": 6636,
  "\u2581adequate": 6637,
  "\u2581cabbage": 6638,
  "\u2581calhoun": 6639,
  "\u2581montgomery": 6640,
  "\u2581preliminar": 6641,
  "\u2581sydney": 6642,
  "\u2581therewith": 6643,
  "\u2581tissue": 6644,
  "\u2581violin": 6645,
  "\u2581flirt": 6646,
  "\u2581enlist": 6647,
  "\u2581rapture": 6648,
  "\u2581flaming": 6649,
  "\u2581mona": 6650,
  "\u2581transaction": 6651,
  "\u2581rogue": 6652,
  "\u2581unique": 6653,
  "\u2581consistent": 6654,
  "\u2581identifi": 6655,
  "\u2581decoration": 6656,
  "\u2581disappearance": 6657,
  "\u2581destination": 6658,
  "\u2581jem": 6659,
  "\u2581paula": 6660,
  "\u2581arc": 6661,
  "\u2581bast": 6662,
  "\u2581noiseless": 6663,
  "\u2581piti": 6664,
  "\u2581mono": 6665,
  "\u2581valet": 6666,
  "\u2581highland": 6667,
  "\u2581bust": 6668,
  "\u2581novelt": 6669,
  "\u2581shov": 6670,
  "\u2581persecut": 6671,
  "\u2581psycholog": 6672,
  "\u2581vigor": 6673,
  "\u2581antagonist": 6674,
  "\u2581extinct": 6675,
  "\u2581merciful": 6676,
  "\u2581obscurit": 6677,
  "\u2581reassure": 6678,
  "\u2581receipt": 6679,
  "\u2581remnant": 6680,
  "\u2581russell": 6681,
  "\u2581schooner": 6682,
  "\u2581unmistakabl": 6683,
  "\u2581delusion": 6684,
  "\u2581reproduc": 6685,
  "\u2581canadian": 6686,
  "\u2581baffl": 6687,
  "\u2581bryce": 6688,
  "\u2581bennet": 6689,
  "\u2581impass": 6690,
  "\u2581churchyard": 6691,
  "\u2581huron": 6692,
  "\u2581salary": 6693,
  "\u2581lucian": 6694,
  "\u2581blend": 6695,
  "\u2581creator": 6696,
  "\u2581perilous": 6697,
  "\u2581filth": 6698,
  "\u2581affliction": 6699,
  "\u2581damon": 6700,
  "\u2581depression": 6701,
  "\u2581hyp": 6702,
  "\u2581theories": 6703,
  "\u2581crave": 6704,
  "\u2581daisy": 6705,
  "\u2581forgetful": 6706,
  "\u2581canada": 6707,
  "accessible": 6708,
  "\u2581defi": 6709,
  "\u2581practic": 6710,
  "\u2581thro": 6711,
  "\u2581usage": 6712,
  "\u2581atom": 6713,
  "\u2581warden": 6714,
  "\u2581bearer": 6715,
  "\u2581cromwell": 6716,
  "\u2581cuthbert": 6717,
  "\u2581destitut": 6718,
  "\u2581offensive": 6719,
  "\u2581secrec": 6720,
  "\u2581teresa": 6721,
  "\u2581javert": 6722,
  "\u2581snarl": 6723,
  "\u2581pathetic": 6724,
  "\u2581smother": 6725,
  "\u2581charley": 6726,
  "\u2581lovelie": 6727,
  "\u2581sinner": 6728,
  "\u2581tame": 6729,
  "\u2581berrie": 6730,
  "\u2581overcoat": 6731,
  "\u2581anticipation": 6732,
  "\u2581badger": 6733,
  "\u2581baba": 6734,
  "\u2581rubber": 6735,
  "\u2581nast": 6736,
  "\u2581classic": 6737,
  "\u2581kindl": 6738,
  "pence": 6739,
  "\u2581rushes": 6740,
  "\u2581manufacture": 6741,
  "thorpe": 6742,
  "\u2581mathematic": 6743,
  "\u2581narrat": 6744,
  "\u2581cob": 6745,
  "\u2581fragrant": 6746,
  "\u2581indispensabl": 6747,
  "\u2581sculpture": 6748,
  "\u2581stuart": 6749,
  "\u2581vanquish": 6750,
  "\u2581diffus": 6751,
  "\u2581wistful": 6752,
  "\u2581piteous": 6753,
  "\u2581reverend": 6754,
  "\u2581carbon": 6755,
  "\u2581garret": 6756,
  "\u2581odour": 6757,
  "\u2581sulk": 6758,
  "\u2581postpon": 6759,
  "\u2581olymp": 6760,
  "\u2581carolina": 6761,
  "\u2581restrict": 6762,
  "\u2581utilit": 6763,
  "\u2581ogre": 6764,
  "\u2581latch": 6765,
  "\u2581stress": 6766,
  "\u2581crude": 6767,
  "\u2581rector": 6768,
  "\u2581executive": 6769,
  "\u2581crater": 6770,
  "\u2581shameful": 6771,
  "alais": 6772,
  "\u2581mimi": 6773,
  "course": 6774,
  "\u2581bigge": 6775,
  "\u2581pew": 6776,
  "\u2581tess": 6777,
  "\u2581pest": 6778,
  "\u2581dock": 6779,
  "\u2581rim": 6780,
  "\u2581hinge": 6781,
  "\u2581feebl": 6782,
  "\u2581marvell": 6783,
  "\u2581tab": 6784,
  "\u2581matrimon": 6785,
  "\u2581rhythm": 6786,
  "\u2581automobile": 6787,
  "\u2581forlorn": 6788,
  "\u2581grumble": 6789,
  "\u2581identical": 6790,
  "\u2581intrigue": 6791,
  "\u2581jupiter": 6792,
  "\u2581moustache": 6793,
  "\u2581research": 6794,
  "\u2581sanction": 6795,
  "\u2581sample": 6796,
  "\u2581grocer": 6797,
  "\u2581jenny": 6798,
  "\u2581kentuck": 6799,
  "\u2581inheritance": 6800,
  "\u2581ostr": 6801,
  "\u2581lonesome": 6802,
  "\u2581columbia": 6803,
  "\u2581sonya": 6804,
  "under": 6805,
  "\u2581politician": 6806,
  "\u2581gratifi": 6807,
  "\u2581hive": 6808,
  "\u2581circl": 6809,
  "\u2581chat": 6810,
  "ata": 6811,
  "stein": 6812,
  "\u2581cork": 6813,
  "lung": 6814,
  "\u2581discharg": 6815,
  "down": 6816,
  "\u2581excellence": 6817,
  "\u2581taylor": 6818,
  "\u2581twitch": 6819,
  "\u2581feign": 6820,
  "\u2581gawain": 6821,
  "\u2581ethel": 6822,
  "\u2581planchet": 6823,
  "\u2581behavio": 6824,
  "munition": 6825,
  "terrane": 6826,
  "\u2581interference": 6827,
  "\u2581husk": 6828,
  "\u2581luxurious": 6829,
  "\u2581beautie": 6830,
  "\u2581pickwick": 6831,
  "\u2581eastward": 6832,
  "\u2581humiliation": 6833,
  "\u2581rigg": 6834,
  "\u2581shun": 6835,
  "\u2581whin": 6836,
  "\u2581tito": 6837,
  "\u2581insert": 6838,
  "\u2581denial": 6839,
  "\u2581ohio": 6840,
  "\u2581amend": 6841,
  "fth": 6842,
  "credulous": 6843,
  "ois": 6844,
  "ita": 6845,
  "\u2581detest": 6846,
  "\u2581faction": 6847,
  "\u2581kite": 6848,
  "\u2581constantin": 6849,
  "\u2581twel": 6850,
  "\u2581miraculous": 6851,
  "\u2581supernatural": 6852,
  "\u2581ungrateful": 6853,
  "\u2581circus": 6854,
  "\u2581episode": 6855,
  "\u2581harriet": 6856,
  "\u2581luminous": 6857,
  "\u2581mutton": 6858,
  "\u2581suicide": 6859,
  "\u2581meditation": 6860,
  "\u2581fulton": 6861,
  "\u2581prowl": 6862,
  "\u2581companie": 6863,
  "\u2581nought": 6864,
  "\u2581flask": 6865,
  "\u2581imprisonment": 6866,
  "\u2581tiptoe": 6867,
  "\u2581heroine": 6868,
  "\u2581attendance": 6869,
  "\u2581balin": 6870,
  "\u2581betwixt": 6871,
  "aves": 6872,
  "\u2581volcano": 6873,
  "\u2581conductor": 6874,
  "\u2581toilet": 6875,
  "\u2581needless": 6876,
  "\u2581patche": 6877,
  "\u2581woo": 6878,
  "\u2581georgia": 6879,
  "\u2581garb": 6880,
  "\u2581logic": 6881,
  "\u2581rom": 6882,
  "\u2581chichikov": 6883,
  "\u2581clench": 6884,
  "\u2581congregation": 6885,
  "\u2581fathom": 6886,
  "\u2581financial": 6887,
  "\u2581ingredient": 6888,
  "\u2581sparrow": 6889,
  "\u2581strife": 6890,
  "\u2581submission": 6891,
  "\u2581boffin": 6892,
  "\u2581ingenuit": 6893,
  "\u2581flanders": 6894,
  "\u2581entrust": 6895,
  "\u2581compartment": 6896,
  "\u2581abound": 6897,
  "\u2581conjur": 6898,
  "\u2581gregg": 6899,
  "\u2581adult": 6900,
  "\u2581avow": 6901,
  "\u2581cripple": 6902,
  "\u2581clown": 6903,
  "\u2581stimul": 6904,
  "\u2581correspondent": 6905,
  "\u2581cycl": 6906,
  "\u2581baronet": 6907,
  "\u2581victorious": 6908,
  "\u2581genial": 6909,
  "\u2581orator": 6910,
  "\u2581galley": 6911,
  "\u2581franklin": 6912,
  "\u2581enchantment": 6913,
  "\u2581localit": 6914,
  "\u2581manifestation": 6915,
  "\u2581sprinkl": 6916,
  "\u2581uneasi": 6917,
  "\u2581agenc": 6918,
  "\u2581habitation": 6919,
  "\u2581admirer": 6920,
  "\u2581african": 6921,
  "\u2581spice": 6922,
  "\u2581dough": 6923,
  "\u2581poetic": 6924,
  "\u2581guil": 6925,
  "\u2581suitor": 6926,
  "fancy": 6927,
  "fell": 6928,
  "\u2581discord": 6929,
  "\u2581apparition": 6930,
  "\u2581caliph": 6931,
  "\u2581consecrat": 6932,
  "\u2581cricket": 6933,
  "\u2581lennox": 6934,
  "\u2581outstretch": 6935,
  "\u2581plentiful": 6936,
  "\u2581whirlwind": 6937,
  "\u2581wizard": 6938,
  "\u2581encamp": 6939,
  "\u2581suburb": 6940,
  "\u2581dripping": 6941,
  "\u2581knive": 6942,
  "\u2581vapor": 6943,
  "\u2581aversion": 6944,
  "\u2581signify": 6945,
  "\u2581seduc": 6946,
  "\u2581defiant": 6947,
  "\u2581morris": 6948,
  "\u2581francisco": 6949,
  "\u2581bubble": 6950,
  "\u2581spat": 6951,
  "\u2581descendant": 6952,
  "\u2581excel": 6953,
  "\u2581rumor": 6954,
  "\u2581unite": 6955,
  "\u2581alma": 6956,
  "tenance": 6957,
  "\u2581hump": 6958,
  "\u2581reap": 6959,
  "\u2581presum": 6960,
  "\u2581humiliat": 6961,
  "\u2581stag": 6962,
  "\u2581hog": 6963,
  "\u2581genie": 6964,
  "\u2581worthless": 6965,
  "\u2581troy": 6966,
  "\u2581prohibit": 6967,
  "\u2581detach": 6968,
  "\u2581reput": 6969,
  "\u2581abominabl": 6970,
  "\u2581blink": 6971,
  "\u2581eminence": 6972,
  "\u2581recruit": 6973,
  "\u2581subordinate": 6974,
  "\u2581syllable": 6975,
  "\u2581thompson": 6976,
  "\u2581ruddy": 6977,
  "\u2581invasion": 6978,
  "\u2581fritz": 6979,
  "\u2581glaring": 6980,
  "\u2581profan": 6981,
  "\u2581cooper": 6982,
  "\u2581betroth": 6983,
  "\u2581tutor": 6984,
  "\u2581coloss": 6985,
  "\u2581spencer": 6986,
  "\u2581err": 6987,
  "\u2581horizontal": 6988,
  "\u2581robinson": 6989,
  "\u2581breach": 6990,
  "\u2581rotten": 6991,
  "\u2581fluid": 6992,
  "\u2581impell": 6993,
  "\u2581burton": 6994,
  "\u2581morland": 6995,
  "\u2581loop": 6996,
  "\u2581selection": 6997,
  "\u2581imitate": 6998,
  "\u2581socialist": 6999,
  "\u2581graz": 7000,
  "\u2581stan": 7001,
  "\u2581cutter": 7002,
  "\u2581starr": 7003,
  "\u2581hello": 7004,
  "\u2581taxe": 7005,
  "\u2581dive": 7006,
  "\u2581bout": 7007,
  "\u2581wrap": 7008,
  "\u2581promote": 7009,
  "\u2581transfer": 7010,
  "\u2581mung": 7011,
  "\u2581rando": 7012,
  "\u2581berg": 7013,
  "\u2581disguised": 7014,
  "\u2581basil": 7015,
  "\u2581annihilat": 7016,
  "\u2581cavalier": 7017,
  "\u2581collaps": 7018,
  "\u2581entangl": 7019,
  "\u2581interrogat": 7020,
  "\u2581mischievous": 7021,
  "\u2581traffic": 7022,
  "\u2581imperative": 7023,
  "\u2581license": 7024,
  "\u2581premise": 7025,
  "\u2581dedicat": 7026,
  "\u2581denominat": 7027,
  "\u2581gould": 7028,
  "\u2581insane": 7029,
  "\u2581waverley": 7030,
  "\u2581amendment": 7031,
  "\u2581oppressive": 7032,
  "\u2581nemo": 7033,
  "\u2581companionship": 7034,
  "\u2581phine": 7035,
  "\u2581hostilit": 7036,
  "\u2581mantel": 7037,
  "\u2581cope": 7038,
  "\u2581magnetic": 7039,
  "\u2581adversary": 7040,
  "\u2581congratulate": 7041,
  "\u2581pry": 7042,
  "\u2581truthful": 7043,
  "\u2581pork": 7044,
  "\u2581constitutional": 7045,
  "\u2581disput": 7046,
  "\u2581psych": 7047,
  "\u2581diar": 7048,
  "\u2581handl": 7049,
  "\u2581transmitt": 7050,
  "\u2581envelop": 7051,
  "\u2581emotional": 7052,
  "\u2581agricultur": 7053,
  "\u2581interfer": 7054,
  "\u2581cemeter": 7055,
  "\u2581technical": 7056,
  "seigneur": 7057,
  "\u2581abolish": 7058,
  "\u2581archbishop": 7059,
  "\u2581competition": 7060,
  "\u2581cylinder": 7061,
  "\u2581godfrey": 7062,
  "\u2581hospitabl": 7063,
  "\u2581inference": 7064,
  "\u2581muzzle": 7065,
  "\u2581oblivio": 7066,
  "\u2581remonstrance": 7067,
  "\u2581ruffian": 7068,
  "\u2581bureau": 7069,
  "\u2581chestnut": 7070,
  "\u2581thereafter": 7071,
  "\u2581liberat": 7072,
  "\u2581choking": 7073,
  "nburgh": 7074,
  "ovitch": 7075,
  "\u2581meddle": 7076,
  "\u2581displeasure": 7077,
  "\u2581belgi": 7078,
  "\u2581unreasonable": 7079,
  "\u2581industrious": 7080,
  "\u2581inspection": 7081,
  "\u2581persecution": 7082,
  "laid": 7083,
  "\u2581sensibilit": 7084,
  "\u2581chopin": 7085,
  "\u2581diversion": 7086,
  "ternation": 7087,
  "\u2581troll": 7088,
  "\u2581gin": 7089,
  "\u2581fig": 7090,
  "\u2581waken": 7091,
  "\u2581bedside": 7092,
  "\u2581voluntar": 7093,
  "\u2581crumbl": 7094,
  "ique": 7095,
  "\u2581playful": 7096,
  "\u2581crane": 7097,
  "\u2581carter": 7098,
  "\u2581peal": 7099,
  "\u2581bou": 7100,
  "\u2581survive": 7101,
  "\u2581boundar": 7102,
  "\u2581legion": 7103,
  "\u2581constitut": 7104,
  "\u2581reasonabl": 7105,
  "ouquet": 7106,
  "\u2581aristocrac": 7107,
  "\u2581baggage": 7108,
  "\u2581conscientious": 7109,
  "\u2581deliberation": 7110,
  "\u2581diameter": 7111,
  "\u2581expenditure": 7112,
  "\u2581impossibilit": 7113,
  "\u2581indistinct": 7114,
  "\u2581insignificant": 7115,
  "\u2581lawrence": 7116,
  "\u2581lukashka": 7117,
  "\u2581matilda": 7118,
  "\u2581persuasion": 7119,
  "\u2581scientist": 7120,
  "\u2581simpson": 7121,
  "\u2581radiat": 7122,
  "\u2581yacht": 7123,
  "\u2581carroll": 7124,
  "\u2581snug": 7125,
  "\u2581inviting": 7126,
  "\u2581misunderstand": 7127,
  "\u2581recurr": 7128,
  "\u2581repay": 7129,
  "\u2581negotiation": 7130,
  "\u2581millionaire": 7131,
  "\u2581condens": 7132,
  "\u2581wove": 7133,
  "\u2581void": 7134,
  "\u2581fishermen": 7135,
  "\u2581hazel": 7136,
  "\u2581moralit": 7137,
  "\u2581malad": 7138,
  "\u2581sallie": 7139,
  "\u2581stru": 7140,
  "\u2581valor": 7141,
  "\u2581clash": 7142,
  "\u2581omitt": 7143,
  "\u2581judgement": 7144,
  "\u2581theater": 7145,
  "\u2581removal": 7146,
  "\u2581dip": 7147,
  "ttered": 7148,
  "\u2581humili": 7149,
  "\u2581broth": 7150,
  "\u2581physic": 7151,
  "\u2581commun": 7152,
  "\u2581speculat": 7153,
  "\u2581gorge": 7154,
  "\u2581indirect": 7155,
  "\u2581unanimous": 7156,
  "\u2581alphabet": 7157,
  "\u2581auspicious": 7158,
  "\u2581buccaneer": 7159,
  "\u2581celesti": 7160,
  "\u2581denounc": 7161,
  "\u2581discomfort": 7162,
  "\u2581fervent": 7163,
  "\u2581landlady": 7164,
  "\u2581mechanism": 7165,
  "\u2581philosophical": 7166,
  "\u2581phronsie": 7167,
  "\u2581proclamation": 7168,
  "\u2581thrash": 7169,
  "\u2581mumm": 7170,
  "\u2581grudge": 7171,
  "\u2581turret": 7172,
  "\u2581constable": 7173,
  "\u2581dazzle": 7174,
  "\u2581syria": 7175,
  "\u2581tedious": 7176,
  "\u2581lilie": 7177,
  "\u2581cedar": 7178,
  "\u2581taunt": 7179,
  "\u2581oriental": 7180,
  "\u2581grievous": 7181,
  "\u2581confinement": 7182,
  "\u2581sandford": 7183,
  "\u2581communion": 7184,
  "\u2581conferr": 7185,
  "\u2581restoration": 7186,
  "\u2581ferry": 7187,
  "\u2581hateful": 7188,
  "\u2581tick": 7189,
  "\u2581hoist": 7190,
  "\u2581selfishness": 7191,
  "kov": 7192,
  "\u2581drill": 7193,
  "\u2581wales": 7194,
  "\u2581birch": 7195,
  "\u2581sauc": 7196,
  "\u2581forego": 7197,
  "\u2581brace": 7198,
  "\u2581budd": 7199,
  "\u2581chil": 7200,
  "\u2581bustle": 7201,
  "\u2581scr": 7202,
  "cott": 7203,
  "ilett": 7204,
  "\u2581purit": 7205,
  "\u2581massachuset": 7206,
  "\u2581ascrib": 7207,
  "\u2581controvers": 7208,
  "\u2581dmitri": 7209,
  "\u2581impulsive": 7210,
  "\u2581malicious": 7211,
  "\u2581resound": 7212,
  "\u2581steadfast": 7213,
  "\u2581assumption": 7214,
  "\u2581bazaar": 7215,
  "\u2581brazil": 7216,
  "\u2581chemical": 7217,
  "\u2581delaware": 7218,
  "\u2581dimension": 7219,
  "\u2581florentine": 7220,
  "\u2581gertrude": 7221,
  "\u2581jehovah": 7222,
  "\u2581magdalen": 7223,
  "\u2581mohammed": 7224,
  "\u2581pennsylvania": 7225,
  "\u2581populace": 7226,
  "\u2581provincial": 7227,
  "\u2581squeak": 7228,
  "\u2581testament": 7229,
  "\u2581partition": 7230,
  "\u2581hearken": 7231,
  "\u2581ministr": 7232,
  "\u2581analog": 7233,
  "\u2581slate": 7234,
  "\u2581ferocious": 7235,
  "\u2581picket": 7236,
  "\u2581broom": 7237,
  "\u2581brew": 7238,
  "\u2581hag": 7239,
  "\u2581von": 7240,
  "\u2581protector": 7241,
  "nette": 7242,
  "\u2581choos": 7243,
  "\u2581tripp": 7244,
  "ello": 7245,
  "aire": 7246,
  "\u2581determin": 7247,
  "\u2581sicken": 7248,
  "\u2581vigilan": 7249,
  "\u2581magnificen": 7250,
  "lip": 7251,
  "\u2581wren": 7252,
  "ball": 7253,
  "\u2581acquiesc": 7254,
  "\u2581empress": 7255,
  "\u2581freight": 7256,
  "\u2581peppino": 7257,
  "\u2581quench": 7258,
  "\u2581scissor": 7259,
  "\u2581stepmother": 7260,
  "\u2581unaccountabl": 7261,
  "\u2581unbroke": 7262,
  "\u2581verdict": 7263,
  "\u2581phillips": 7264,
  "\u2581recoil": 7265,
  "\u2581shrine": 7266,
  "\u2581eames": 7267,
  "\u2581enrage": 7268,
  "\u2581ruffl": 7269,
  "\u2581davis": 7270,
  "\u2581buff": 7271,
  "\u2581subsist": 7272,
  "\u2581vincent": 7273,
  "\u2581meditate": 7274,
  "\u2581enclosure": 7275,
  "\u2581garland": 7276,
  "\u2581spun": 7277,
  "\u2581regulation": 7278,
  "\u2581distribution": 7279,
  "\u2581barbar": 7280,
  "\u2581peel": 7281,
  "\u2581acceptance": 7282,
  "\u2581bribe": 7283,
  "\u2581bland": 7284,
  "sensible": 7285,
  "\u2581eg": 7286,
  "hill": 7287,
  "\u2581leo": 7288,
  "\u2581oz": 7289,
  "\u2581doub": 7290,
  "spar": 7291,
  "\u2581ominous": 7292,
  "\u2581explod": 7293,
  "\u2581inscription": 7294,
  "\u2581morcerf": 7295,
  "\u2581nelson": 7296,
  "\u2581rhyme": 7297,
  "\u2581superflu": 7298,
  "\u2581unequal": 7299,
  "\u2581willoughby": 7300,
  "\u2581scowl": 7301,
  "\u2581shuffl": 7302,
  "\u2581infernal": 7303,
  "\u2581laurel": 7304,
  "\u2581karl": 7305,
  "\u2581pension": 7306,
  "\u2581indoor": 7307,
  "\u2581dancer": 7308,
  "\u2581compress": 7309,
  "\u2581zone": 7310,
  "\u2581contrivance": 7311,
  "\u2581spade": 7312,
  "\u2581rubbish": 7313,
  "action": 7314,
  "\u2581starlight": 7315,
  "\u2581truck": 7316,
  "\u2581prosper": 7317,
  "\u2581duc": 7318,
  "\u2581louisa": 7319,
  "\u2581wrench": 7320,
  "\u2581ark": 7321,
  "\u2581nile": 7322,
  "\u2581burial": 7323,
  "\u2581mocker": 7324,
  "\u2581compel": 7325,
  "hem": 7326,
  "\u2581bah": 7327,
  "\u2581apologiz": 7328,
  "\u2581benevolent": 7329,
  "\u2581bicycle": 7330,
  "\u2581disconcert": 7331,
  "\u2581epoch": 7332,
  "\u2581improper": 7333,
  "\u2581indebted": 7334,
  "\u2581inquisitive": 7335,
  "\u2581jersey": 7336,
  "\u2581paragraph": 7337,
  "\u2581susceptib": 7338,
  "\u2581nigger": 7339,
  "\u2581martial": 7340,
  "\u2581jeffrey": 7341,
  "\u2581deceit": 7342,
  "\u2581brink": 7343,
  "\u2581scann": 7344,
  "\u2581unaware": 7345,
  "witzer": 7346,
  "\u2581destructive": 7347,
  "\u2581weird": 7348,
  "\u2581almah": 7349,
  "\u2581shark": 7350,
  "cock": 7351,
  "\u2581deliverance": 7352,
  "\u2581variation": 7353,
  "\u2581mineral": 7354,
  "\u2581concealment": 7355,
  "\u2581grub": 7356,
  "\u2581rig": 7357,
  "\u2581packard": 7358,
  "\u2581babylon": 7359,
  "\u2581wade": 7360,
  "new": 7361,
  "\u2581juda": 7362,
  "\u2581rout": 7363,
  "elope": 7364,
  "\u2581jeer": 7365,
  "bone": 7366,
  "leigh": 7367,
  "\u2581ballad": 7368,
  "\u2581balanc": 7369,
  "\u2581conspir": 7370,
  "folk": 7371,
  "quarters": 7372,
  "spring": 7373,
  "\u2581bait": 7374,
  "\u2581punctual": 7375,
  "\u2581superficial": 7376,
  "quois": 7377,
  "\u2581blacksmith": 7378,
  "\u2581gipsy": 7379,
  "\u2581hannah": 7380,
  "\u2581mushroom": 7381,
  "\u2581anthony": 7382,
  "\u2581fabric": 7383,
  "\u2581redeem": 7384,
  "\u2581jarvis": 7385,
  "\u2581undress": 7386,
  "\u2581unselfish": 7387,
  "\u2581peacock": 7388,
  "\u2581stony": 7389,
  "\u2581ransom": 7390,
  "\u2581penetrating": 7391,
  "\u2581infallibl": 7392,
  "\u2581towel": 7393,
  "\u2581cramp": 7394,
  "\u2581stow": 7395,
  "\u2581molly": 7396,
  "\u2581plight": 7397,
  "\u2581tatter": 7398,
  "\u2581lustre": 7399,
  "\u2581hillside": 7400,
  "\u2581lucki": 7401,
  "\u2581bravery": 7402,
  "undry": 7403,
  "\u2581lull": 7404,
  "lov": 7405,
  "\u2581ripen": 7406,
  "\u2581director": 7407,
  "\u2581consume": 7408,
  "\u2581amory": 7409,
  "\u2581villa": 7410,
  "\u2581clap": 7411,
  "\u2581routin": 7412,
  "corporeal": 7413,
  "\u2581baptism": 7414,
  "\u2581channing": 7415,
  "\u2581chocolate": 7416,
  "\u2581constituent": 7417,
  "\u2581courier": 7418,
  "\u2581hudson": 7419,
  "\u2581hypnotis": 7420,
  "\u2581irritation": 7421,
  "\u2581nickleby": 7422,
  "\u2581obstinac": 7423,
  "\u2581osborne": 7424,
  "\u2581spacious": 7425,
  "\u2581veteran": 7426,
  "\u2581zarathustra": 7427,
  "\u2581snail": 7428,
  "\u2581tarzan": 7429,
  "\u2581transcend": 7430,
  "\u2581enrich": 7431,
  "\u2581abbot": 7432,
  "\u2581sterling": 7433,
  "\u2581plaintive": 7434,
  "\u2581sift": 7435,
  "\u2581headache": 7436,
  "\u2581fanatic": 7437,
  "\u2581designat": 7438,
  "\u2581uncover": 7439,
  "served": 7440,
  "\u2581terry": 7441,
  "\u2581gateway": 7442,
  "\u2581sici": 7443,
  "\u2581fascination": 7444,
  "\u2581augustus": 7445,
  "\u2581limitation": 7446,
  "\u2581elector": 7447,
  "animate": 7448,
  "\u2581lapse": 7449,
  "\u2581pail": 7450,
  "\u2581partake": 7451,
  "\u2581darn": 7452,
  "\u2581hoar": 7453,
  "\u2581pell": 7454,
  "\u2581chronicle": 7455,
  "\u2581activit": 7456,
  "\u2581plea": 7457,
  "\u2581seren": 7458,
  "eep": 7459,
  "\u2581slit": 7460,
  "lick": 7461,
  "\u2581felix": 7462,
  "\u2581kutuzov": 7463,
  "\u2581occupant": 7464,
  "\u2581petticoat": 7465,
  "\u2581talbot": 7466,
  "\u2581thwart": 7467,
  "\u2581typical": 7468,
  "\u2581vapour": 7469,
  "\u2581montoni": 7470,
  "\u2581ordain": 7471,
  "\u2581zadig": 7472,
  "\u2581murray": 7473,
  "\u2581alexandrovitch": 7474,
  "sumptuous": 7475,
  "\u2581proving": 7476,
  "\u2581slant": 7477,
  "\u2581maurice": 7478,
  "\u2581dazed": 7479,
  "\u2581pussy": 7480,
  "\u2581bertram": 7481,
  "\u2581genji": 7482,
  "\u2581raymond": 7483,
  "\u2581conservative": 7484,
  "\u2581stitch": 7485,
  "\u2581lorry": 7486,
  "\u2581contribution": 7487,
  "\u2581luke": 7488,
  "\u2581translation": 7489,
  "\u2581corps": 7490,
  "\u2581thar": 7491,
  "\u2581draper": 7492,
  "\u2581beads": 7493,
  "\u2581tackle": 7494,
  "ttering": 7495,
  "\u2581hatter": 7496,
  "\u2581liar": 7497,
  "\u2581wicker": 7498,
  "\u2581speechless": 7499,
  "\u2581fee": 7500,
  "\u2581pronounce": 7501,
  "satisfied": 7502,
  "\u2581prodig": 7503,
  "\u2581abstain": 7504,
  "\u2581benevolence": 7505,
  "\u2581bridegroom": 7506,
  "\u2581concession": 7507,
  "\u2581decreas": 7508,
  "\u2581disobey": 7509,
  "\u2581equipment": 7510,
  "\u2581eruption": 7511,
  "\u2581exclusion": 7512,
  "\u2581handwriting": 7513,
  "\u2581insurrection": 7514,
  "\u2581spontaneous": 7515,
  "\u2581sweetheart": 7516,
  "\u2581censure": 7517,
  "\u2581scorch": 7518,
  "\u2581dishonest": 7519,
  "\u2581rheumati": 7520,
  "\u2581astound": 7521,
  "\u2581hopkins": 7522,
  "\u2581loiter": 7523,
  "\u2581amazon": 7524,
  "\u2581snare": 7525,
  "\u2581gyp": 7526,
  "\u2581yankee": 7527,
  "\u2581salmon": 7528,
  "\u2581rumour": 7529,
  "\u2581impetuous": 7530,
  "\u2581errant": 7531,
  "\u2581sorcer": 7532,
  "\u2581swoon": 7533,
  "\u2581sleigh": 7534,
  "\u2581envious": 7535,
  "\u2581merrick": 7536,
  "\u2581jake": 7537,
  "\u2581stature": 7538,
  "\u2581clem": 7539,
  "\u2581laud": 7540,
  "\u2581shovel": 7541,
  "\u2581iceland": 7542,
  "\u2581pansy": 7543,
  "\u2581hetty": 7544,
  "acent": 7545,
  "\u2581boyhood": 7546,
  "\u2581bandage": 7547,
  "\u2581gile": 7548,
  "\u2581vehement": 7549,
  "\u2581loneli": 7550,
  "\u2581moderati": 7551,
  "\u2581jailer": 7552,
  "\u2581psychic": 7553,
  "\u2581butterfl": 7554,
  "\u2581societ": 7555,
  "\u2581taper": 7556,
  "\u2581reverie": 7557,
  "\u2581forcibl": 7558,
  "\u2581pagan": 7559,
  "\u2581applaud": 7560,
  "\u2581abnormal": 7561,
  "\u2581chevalier": 7562,
  "\u2581environment": 7563,
  "\u2581hysterical": 7564,
  "\u2581institute": 7565,
  "\u2581magnitude": 7566,
  "\u2581pulpit": 7567,
  "\u2581refinement": 7568,
  "\u2581rufford": 7569,
  "\u2581strenuous": 7570,
  "\u2581vigour": 7571,
  "\u2581metropoli": 7572,
  "\u2581precept": 7573,
  "\u2581wazir": 7574,
  "\u2581relish": 7575,
  "\u2581radical": 7576,
  "\u2581denzil": 7577,
  "\u2581nibbl": 7578,
  "\u2581coincidence": 7579,
  "\u2581bulg": 7580,
  "\u2581cambridge": 7581,
  "\u2581queri": 7582,
  "\u2581burglar": 7583,
  "\u2581vinegar": 7584,
  "\u2581bracelet": 7585,
  "\u2581stanley": 7586,
  "\u2581mold": 7587,
  "\u2581cheque": 7588,
  "\u2581ecclesiastical": 7589,
  "\u2581raid": 7590,
  "\u2581gush": 7591,
  "\u2581vibration": 7592,
  "\u2581zealous": 7593,
  "vsky": 7594,
  "\u2581titan": 7595,
  "\u2581gripp": 7596,
  "\u2581morton": 7597,
  "\u2581recommendation": 7598,
  "\u2581dron": 7599,
  "\u2581tusk": 7600,
  "\u2581fleece": 7601,
  "\u2581anita": 7602,
  "\u2581chum": 7603,
  "iana": 7604,
  "morph": 7605,
  "\u2581absurdit": 7606,
  "\u2581imitat": 7607,
  "\u2581wot": 7608,
  "\u2581peach": 7609,
  "\u2581disagree": 7610,
  "\u2581arbitrar": 7611,
  "\u2581bramble": 7612,
  "\u2581dungeon": 7613,
  "\u2581emphasiz": 7614,
  "\u2581fitzpiers": 7615,
  "\u2581maximilian": 7616,
  "\u2581scaffold": 7617,
  "\u2581theatrical": 7618,
  "\u2581tumbling": 7619,
  "\u2581vrain": 7620,
  "\u2581kenneth": 7621,
  "\u2581brazen": 7622,
  "\u2581bohemia": 7623,
  "\u2581larry": 7624,
  "\u2581strangl": 7625,
  "\u2581notorious": 7626,
  "\u2581thorndyke": 7627,
  "\u2581picnic": 7628,
  "\u2581gloomi": 7629,
  "\u2581joking": 7630,
  "\u2581hatchet": 7631,
  "\u2581vacation": 7632,
  "\u2581fraud": 7633,
  "\u2581creat": 7634,
  "\u2581wilful": 7635,
  "\u2581rescu": 7636,
  "\u2581label": 7637,
  "\u2581surmount": 7638,
  "\u2581lamentation": 7639,
  "\u2581collector": 7640,
  "\u2581monopol": 7641,
  "\u2581ivy": 7642,
  "\u2581deuce": 7643,
  "\u2581courageous": 7644,
  "\u2581alms": 7645,
  "\u2581abat": 7646,
  "dition": 7647,
  "\u2581reluctan": 7648,
  "\u2581spec": 7649,
  "\u2581barb": 7650,
  "\u2581dominat": 7651,
  "\u2581encircl": 7652,
  "\u2581barbicane": 7653,
  "\u2581caterpillar": 7654,
  "\u2581guiche": 7655,
  "\u2581incomprehensibl": 7656,
  "\u2581insolence": 7657,
  "\u2581legislation": 7658,
  "\u2581pecuniar": 7659,
  "\u2581redoubl": 7660,
  "\u2581venetian": 7661,
  "\u2581famine": 7662,
  "\u2581haggard": 7663,
  "\u2581monica": 7664,
  "\u2581exhort": 7665,
  "\u2581repast": 7666,
  "\u2581surmise": 7667,
  "\u2581engrav": 7668,
  "\u2581cynic": 7669,
  "\u2581stacy": 7670,
  "\u2581aisle": 7671,
  "\u2581mountaineer": 7672,
  "\u2581laborious": 7673,
  "\u2581polar": 7674,
  "\u2581gris": 7675,
  "\u2581maze": 7676,
  "\u2581windsor": 7677,
  "\u2581profitable": 7678,
  "\u2581lena": 7679,
  "\u2581propertie": 7680,
  "\u2581sash": 7681,
  "\u2581conspirac": 7682,
  "\u2581displac": 7683,
  "\u2581mouthful": 7684,
  "\u2581undulat": 7685,
  "\u2581publication": 7686,
  "\u2581bates": 7687,
  "done": 7688,
  "aples": 7689,
  "\u2581alfred": 7690,
  "\u2581uplift": 7691,
  "\u2581apparel": 7692,
  "\u2581aspiration": 7693,
  "\u2581beauchamp": 7694,
  "\u2581boolooroo": 7695,
  "\u2581clarence": 7696,
  "\u2581convulsion": 7697,
  "\u2581kangaroo": 7698,
  "\u2581lobster": 7699,
  "\u2581mazarin": 7700,
  "\u2581merciless": 7701,
  "\u2581metaphysic": 7702,
  "\u2581milburgh": 7703,
  "\u2581pioneer": 7704,
  "\u2581sneak": 7705,
  "\u2581divinity": 7706,
  "\u2581fantine": 7707,
  "\u2581target": 7708,
  "\u2581corinth": 7709,
  "\u2581hubert": 7710,
  "\u2581nook": 7711,
  "\u2581wring": 7712,
  "\u2581congratulation": 7713,
  "\u2581avaric": 7714,
  "\u2581dilat": 7715,
  "\u2581alac": 7716,
  "\u2581consultation": 7717,
  "\u2581listless": 7718,
  "\u2581crag": 7719,
  "\u2581solemnity": 7720,
  "memorial": 7721,
  "\u2581communit": 7722,
  "\u2581originat": 7723,
  "\u2581sil": 7724,
  "\u2581miserabl": 7725,
  "\u2581inspect": 7726,
  "band": 7727,
  "\u2581alexandr": 7728,
  "\u2581shrub": 7729,
  "\u2581confederac": 7730,
  "\u2581elastic": 7731,
  "\u2581frivolous": 7732,
  "\u2581immaterial": 7733,
  "\u2581aperture": 7734,
  "\u2581colleague": 7735,
  "\u2581commotion": 7736,
  "\u2581engross": 7737,
  "\u2581flannel": 7738,
  "\u2581fragrance": 7739,
  "\u2581knob": 7740,
  "\u2581lecoq": 7741,
  "\u2581masculine": 7742,
  "\u2581miriam": 7743,
  "\u2581orchestra": 7744,
  "\u2581pretext": 7745,
  "\u2581odysse": 7746,
  "\u2581trigger": 7747,
  "\u2581gordon": 7748,
  "\u2581enact": 7749,
  "\u2581hamper": 7750,
  "\u2581unob": 7751,
  "\u2581clamor": 7752,
  "\u2581nightmare": 7753,
  "\u2581buckingham": 7754,
  "\u2581brenda": 7755,
  "\u2581defy": 7756,
  "\u2581winterbourne": 7757,
  "\u2581bleak": 7758,
  "\u2581sedley": 7759,
  "\u2581repell": 7760,
  "\u2581integr": 7761,
  "\u2581outfit": 7762,
  "\u2581piety": 7763,
  "\u2581corneli": 7764,
  "\u2581chaff": 7765,
  "\u2581serf": 7766,
  "\u2581arabian": 7767,
  "\u2581suggestive": 7768,
  "\u2581observance": 7769,
  "\u2581requirement": 7770,
  "\u2581objective": 7771,
  "\u2581fable": 7772,
  "\u2581trample": 7773,
  "\u2581genu": 7774,
  "shot": 7775,
  "\u2581boon": 7776,
  "\u2581sarcastic": 7777,
  "\u2581approbat": 7778,
  "\u2581brillianc": 7779,
  "\u2581crucifi": 7780,
  "\u2581draft": 7781,
  "\u2581elegance": 7782,
  "\u2581enigma": 7783,
  "\u2581forefinger": 7784,
  "\u2581kadok": 7785,
  "\u2581kenwigs": 7786,
  "\u2581mitchell": 7787,
  "\u2581pretension": 7788,
  "\u2581reginald": 7789,
  "\u2581squadron": 7790,
  "\u2581sylvie": 7791,
  "\u2581carthage": 7792,
  "\u2581perverse": 7793,
  "\u2581fergus": 7794,
  "\u2581texa": 7795,
  "\u2581myriad": 7796,
  "\u2581warren": 7797,
  "\u2581extension": 7798,
  "\u2581sprawl": 7799,
  "\u2581version": 7800,
  "\u2581indulgent": 7801,
  "\u2581exposure": 7802,
  "\u2581broil": 7803,
  "\u2581salad": 7804,
  "\u2581lucie": 7805,
  "\u2581cupid": 7806,
  "\u2581flapp": 7807,
  "\u2581undu": 7808,
  "\u2581gear": 7809,
  "\u2581sawyer": 7810,
  "\u2581madden": 7811,
  "\u2581dru": 7812,
  "\u2581wakem": 7813,
  "\u2581emphatical": 7814,
  "\u2581rustic": 7815,
  "\u2581adventur": 7816,
  "\u2581grav": 7817,
  "\u2581abject": 7818,
  "\u2581anecdote": 7819,
  "\u2581benjamin": 7820,
  "\u2581censor": 7821,
  "\u2581disinterested": 7822,
  "\u2581ejaculate": 7823,
  "\u2581equivalent": 7824,
  "\u2581horrifi": 7825,
  "\u2581jacques": 7826,
  "\u2581mortimer": 7827,
  "\u2581participat": 7828,
  "\u2581shrunk": 7829,
  "\u2581tebrick": 7830,
  "\u2581coronel": 7831,
  "\u2581implement": 7832,
  "\u2581morbid": 7833,
  "\u2581whim": 7834,
  "\u2581austin": 7835,
  "\u2581snob": 7836,
  "\u2581veranda": 7837,
  "\u2581evinc": 7838,
  "\u2581initial": 7839,
  "\u2581offense": 7840,
  "\u2581morsel": 7841,
  "\u2581teddy": 7842,
  "\u2581stevens": 7843,
  "\u2581duncan": 7844,
  "\u2581hereditar": 7845,
  "\u2581projectile": 7846,
  "\u2581purg": 7847,
  "\u2581fitz": 7848,
  "\u2581heighten": 7849,
  "\u2581overturn": 7850,
  "\u2581fortifi": 7851,
  "\u2581liveli": 7852,
  "\u2581desperat": 7853,
  "\u2581civilit": 7854,
  "\u2581accura": 7855,
  "bourne": 7856,
  "\u2581nimble": 7857,
  "\u2581armstrong": 7858,
  "\u2581conniston": 7859,
  "\u2581evaporat": 7860,
  "\u2581flavor": 7861,
  "\u2581harrington": 7862,
  "\u2581inexpressibl": 7863,
  "\u2581nekhludoff": 7864,
  "\u2581orthodox": 7865,
  "\u2581piazza": 7866,
  "\u2581predecessor": 7867,
  "\u2581prowess": 7868,
  "\u2581saviour": 7869,
  "\u2581smuggl": 7870,
  "\u2581futile": 7871,
  "\u2581massacre": 7872,
  "\u2581scope": 7873,
  "\u2581pervad": 7874,
  "\u2581straggl": 7875,
  "\u2581bingley": 7876,
  "\u2581mutin": 7877,
  "\u2581merlin": 7878,
  "\u2581export": 7879,
  "\u2581relay": 7880,
  "\u2581puck": 7881,
  "\u2581blight": 7882,
  "\u2581livid": 7883,
  "eference": 7884,
  "\u2581maple": 7885,
  "\u2581lou": 7886,
  "\u2581sai": 7887,
  "\u2581phi": 7888,
  "wit": 7889,
  "onia": 7890,
  "bourg": 7891,
  "\u2581accommodat": 7892,
  "\u2581aft": 7893,
  "\u2581frederic": 7894,
  "\u2581insufficient": 7895,
  "\u2581scrupulous": 7896,
  "\u2581aristotle": 7897,
  "\u2581burrow": 7898,
  "\u2581chipmunk": 7899,
  "\u2581client": 7900,
  "\u2581crevice": 7901,
  "\u2581eclipse": 7902,
  "\u2581elphick": 7903,
  "\u2581inscrib": 7904,
  "\u2581jervis": 7905,
  "\u2581mercury": 7906,
  "\u2581mukoki": 7907,
  "\u2581perturb": 7908,
  "\u2581whig": 7909,
  "\u2581gretel": 7910,
  "\u2581imperious": 7911,
  "\u2581smack": 7912,
  "\u2581horde": 7913,
  "\u2581chunk": 7914,
  "\u2581currant": 7915,
  "\u2581plunging": 7916,
  "\u2581snub": 7917,
  "\u2581shaving": 7918,
  "\u2581bewitch": 7919,
  "\u2581clavering": 7920,
  "\u2581linton": 7921,
  "\u2581mortification": 7922,
  "\u2581remedie": 7923,
  "\u2581retrac": 7924,
  "\u2581romola": 7925,
  "\u2581alban": 7926,
  "\u2581forecast": 7927,
  "\u2581tinkl": 7928,
  "\u2581croak": 7929,
  "\u2581ramble": 7930,
  "\u2581grievance": 7931,
  "\u2581donald": 7932,
  "\u2581tropical": 7933,
  "\u2581modifie": 7934,
  "\u2581tinder": 7935,
  "risen": 7936,
  "\u2581armand": 7937,
  "\u2581location": 7938,
  "\u2581spruce": 7939,
  "\u2581posture": 7940,
  "\u2581jock": 7941,
  "\u2581fellowship": 7942,
  "\u2581mow": 7943,
  "\u2581tortur": 7944,
  "\u2581mau": 7945,
  "\u2581solicitu": 7946,
  "stock": 7947,
  "\u2581vibrat": 7948,
  "\u2581hurstwood": 7949,
  "\u2581imperceptibl": 7950,
  "\u2581intrinsic": 7951,
  "\u2581intuition": 7952,
  "\u2581junction": 7953,
  "\u2581repugnan": 7954,
  "\u2581rouletabille": 7955,
  "\u2581screech": 7956,
  "\u2581stupef": 7957,
  "\u2581artifice": 7958,
  "\u2581degenerat": 7959,
  "\u2581expend": 7960,
  "\u2581propensit": 7961,
  "\u2581unchange": 7962,
  "\u2581discard": 7963,
  "\u2581ravag": 7964,
  "\u2581gloss": 7965,
  "\u2581kirk": 7966,
  "\u2581poult": 7967,
  "\u2581apollo": 7968,
  "\u2581huntsman": 7969,
  "\u2581roost": 7970,
  "\u2581impartial": 7971,
  "\u2581pilgrimage": 7972,
  "\u2581reverent": 7973,
  "\u2581latitude": 7974,
  "\u2581clamber": 7975,
  "\u2581rov": 7976,
  "\u2581peterkin": 7977,
  "\u2581hoop": 7978,
  "\u2581waterfall": 7979,
  "\u2581cropp": 7980,
  "\u2581sumter": 7981,
  "\u2581cair": 7982,
  "\u2581condemnation": 7983,
  "\u2581madman": 7984,
  "\u2581norah": 7985,
  "\u2581hitch": 7986,
  "\u2581magical": 7987,
  "\u2581jenk": 7988,
  "\u2581conclusive": 7989,
  "\u2581perpendicular": 7990,
  "\u2581transgress": 7991,
  "\u2581boulder": 7992,
  "\u2581cataract": 7993,
  "\u2581compensation": 7994,
  "\u2581diligence": 7995,
  "\u2581eugene": 7996,
  "\u2581expanse": 7997,
  "\u2581ferdinand": 7998,
  "\u2581giddy": 7999,
  "\u2581impenetrabl": 8000,
  "\u2581inexperience": 8001,
  "\u2581inexplicabl": 8002,
  "\u2581irritabl": 8003,
  "\u2581outburst": 8004,
  "\u2581pamphlet": 8005,
  "\u2581photoplay": 8006,
  "\u2581presbyterian": 8007,
  "\u2581valancourt": 8008,
  "\u2581wriggl": 8009,
  "\u2581wuz": 8010,
  "\u2581goblin": 8011,
  "\u2581migrat": 8012,
  "\u2581durrance": 8013,
  "\u2581patrol": 8014,
  "\u2581beetle": 8015,
  "\u2581brigand": 8016,
  "\u2581exterior": 8017,
  "\u2581footprint": 8018,
  "\u2581helium": 8019,
  "\u2581arctic": 8020,
  "\u2581strata": 8021,
  "\u2581daunt": 8022,
  "\u2581ebb": 8023,
  "\u2581plateau": 8024,
  "\u2581enmit": 8025,
  "\u2581barley": 8026,
  "will": 8027,
  "\u2581kor": 8028,
  "\u2581nether": 8029,
  "\u2581thump": 8030,
  "onian": 8031,
  "bla": 8032,
  "\u2581combine": 8033,
  "\u2581disk": 8034,
  "\u2581rapp": 8035,
  "\u2581crocodile": 8036,
  "\u2581galahad": 8037,
  "\u2581hoopdriver": 8038,
  "\u2581lufton": 8039,
  "\u2581reinforcement": 8040,
  "\u2581skirmish": 8041,
  "\u2581telescope": 8042,
  "\u2581unearth": 8043,
  "\u2581wharf": 8044,
  "\u2581stork": 8045,
  "\u2581forfeit": 8046,
  "\u2581poyser": 8047,
  "\u2581collins": 8048,
  "\u2581wyat": 8049,
  "\u2581antonia": 8050,
  "\u2581precisi": 8051,
  "\u2581colbert": 8052,
  "\u2581quilt": 8053,
  "\u2581frigate": 8054,
  "\u2581elmwood": 8055,
  "\u2581monoton": 8056,
  "\u2581assailant": 8057,
  "\u2581imaginative": 8058,
  "\u2581elud": 8059,
  "\u2581competent": 8060,
  "\u2581ponderous": 8061,
  "\u2581accommodation": 8062,
  "\u2581mustache": 8063,
  "\u2581tete": 8064,
  "\u2581flake": 8065,
  "\u2581reproachful": 8066,
  "\u2581corruption": 8067,
  "\u2581brut": 8068,
  "\u2581plus": 8069,
  "\u2581randal": 8070,
  "\u2581bobb": 8071,
  "\u2581dependenc": 8072,
  "\u2581disappoint": 8073,
  "\u2581kal": 8074,
  "\u2581strawberr": 8075,
  "boro": 8076,
  "\u2581weave": 8077,
  "\u2581trickl": 8078,
  "\u2581chick": 8079,
  "metheus": 8080,
  "\u2581accost": 8081,
  "\u2581apprentice": 8082,
  "\u2581convulsive": 8083,
  "\u2581demeanour": 8084,
  "\u2581desolation": 8085,
  "\u2581embracing": 8086,
  "\u2581instantaneous": 8087,
  "\u2581jerome": 8088,
  "\u2581miniature": 8089,
  "\u2581parchment": 8090,
  "\u2581remonstrat": 8091,
  "\u2581semblance": 8092,
  "\u2581sojourn": 8093,
  "\u2581terrify": 8094,
  "\u2581wardrobe": 8095,
  "\u2581barrack": 8096,
  "\u2581dundee": 8097,
  "\u2581rebuke": 8098,
  "\u2581chemist": 8099,
  "\u2581fyodorovitch": 8100,
  "\u2581bawl": 8101,
  "\u2581deign": 8102,
  "\u2581qualifie": 8103,
  "\u2581impend": 8104,
  "\u2581musketeer": 8105,
  "\u2581josie": 8106,
  "\u2581pensive": 8107,
  "\u2581tartar": 8108,
  "\u2581rook": 8109,
  "\u2581antique": 8110,
  "\u2581spoonful": 8111,
  "\u2581nettle": 8112,
  "\u2581concede": 8113,
  "\u2581yale": 8114,
  "\u2581garth": 8115,
  "\u2581oval": 8116,
  "\u2581tighten": 8117,
  "\u2581clove": 8118,
  "\u2581substitut": 8119,
  "imation": 8120,
  "\u2581role": 8121,
  "\u2581metallic": 8122,
  "disturbed": 8123,
  "\u2581thirtie": 8124,
  "\u2581benefactor": 8125,
  "\u2581berwin": 8126,
  "\u2581bruno": 8127,
  "\u2581dubious": 8128,
  "\u2581fuzz": 8129,
  "\u2581galloway": 8130,
  "\u2581grammar": 8131,
  "\u2581hurrah": 8132,
  "\u2581impertinent": 8133,
  "\u2581imploring": 8134,
  "\u2581inconvenient": 8135,
  "\u2581malignant": 8136,
  "\u2581subscrib": 8137,
  "\u2581pauper": 8138,
  "\u2581wherewith": 8139,
  "\u2581audacit": 8140,
  "\u2581barrister": 8141,
  "\u2581bayonet": 8142,
  "\u2581elliot": 8143,
  "\u2581epistle": 8144,
  "\u2581carleton": 8145,
  "\u2581knave": 8146,
  "\u2581proffer": 8147,
  "\u2581commencement": 8148,
  "\u2581rosemary": 8149,
  "\u2581augment": 8150,
  "\u2581regal": 8151,
  "\u2581menacing": 8152,
  "\u2581presty": 8153,
  "\u2581eaves": 8154,
  "\u2581compris": 8155,
  "\u2581skiff": 8156,
  "\u2581runaway": 8157,
  "\u2581estimation": 8158,
  "\u2581caprice": 8159,
  "\u2581pitiless": 8160,
  "\u2581confirmation": 8161,
  "\u2581authoriz": 8162,
  "\u2581ironical": 8163,
  "\u2581mink": 8164,
  "\u2581exit": 8165,
  "\u2581spiteful": 8166,
  "\u2581ceaseless": 8167,
  "\u2581spire": 8168,
  "ouri": 8169,
  "\u2581spru": 8170,
  "heim": 8171,
  "\u2581medal": 8172,
  "body": 8173,
  "\u2581columb": 8174,
  "\u2581hydro": 8175,
  "\u2581emancipat": 8176,
  "\u2581avalanche": 8177,
  "\u2581bourgeois": 8178,
  "\u2581clamour": 8179,
  "\u2581depict": 8180,
  "\u2581dialogue": 8181,
  "\u2581diligent": 8182,
  "\u2581dizzy": 8183,
  "\u2581flavour": 8184,
  "\u2581harrow": 8185,
  "\u2581mordaunt": 8186,
  "\u2581sabbath": 8187,
  "\u2581splinter": 8188,
  "\u2581chamberlain": 8189,
  "\u2581cornwall": 8190,
  "\u2581klaus": 8191,
  "\u2581marchioness": 8192,
  "\u2581lydia": 8193,
  "\u2581counsellor": 8194,
  "\u2581recipe": 8195,
  "\u2581cowboy": 8196,
  "\u2581prevalen": 8197,
  "\u2581unmov": 8198,
  "\u2581provocati": 8199,
  "\u2581domain": 8200,
  "\u2581harass": 8201,
  "\u2581squint": 8202,
  "\u2581devoi": 8203,
  "\u2581flounder": 8204,
  "\u2581subterrane": 8205,
  "\u2581ursu": 8206,
  "\u2581burgund": 8207,
  "\u2581squaw": 8208,
  "\u2581install": 8209,
  "\u2581cartridge": 8210,
  "\u2581napkin": 8211,
  "\u2581crawley": 8212,
  "come": 8213,
  "\u2581valid": 8214,
  "\u2581chasm": 8215,
  "\u2581combatant": 8216,
  "\u2581gutter": 8217,
  "\u2581overseer": 8218,
  "\u2581thoris": 8219,
  "\u2581humorous": 8220,
  "\u2581mug": 8221,
  "\u2581stairway": 8222,
  "\u2581morrel": 8223,
  "\u2581avon": 8224,
  "\u2581latent": 8225,
  "\u2581scarf": 8226,
  "\u2581panther": 8227,
  "polis": 8228,
  "\u2581fume": 8229,
  "\u2581creditor": 8230,
  "\u2581laborator": 8231,
  "sought": 8232,
  "\u2581dave": 8233,
  "hound": 8234,
  "\u2581architect": 8235,
  "\u2581alexandrovna": 8236,
  "\u2581arrogan": 8237,
  "\u2581battalion": 8238,
  "\u2581deception": 8239,
  "\u2581dejected": 8240,
  "\u2581deserving": 8241,
  "\u2581dishonour": 8242,
  "\u2581eunuch": 8243,
  "\u2581grumbling": 8244,
  "\u2581seclud": 8245,
  "\u2581supplement": 8246,
  "\u2581delegate": 8247,
  "\u2581devastat": 8248,
  "\u2581furrow": 8249,
  "\u2581newcomer": 8250,
  "\u2581urban": 8251,
  "\u2581mattress": 8252,
  "\u2581vivaci": 8253,
  "\u2581mountjoy": 8254,
  "\u2581libertie": 8255,
  "\u2581vassal": 8256,
  "\u2581fumbl": 8257,
  "\u2581humbug": 8258,
  "\u2581melbury": 8259,
  "\u2581southwest": 8260,
  "\u2581chord": 8261,
  "\u2581carving": 8262,
  "\u2581unarm": 8263,
  "\u2581aloof": 8264,
  "\u2581complication": 8265,
  "\u2581matern": 8266,
  "\u2581thigh": 8267,
  "\u2581smol": 8268,
  "\u2581johnnie": 8269,
  "\u2581shred": 8270,
  "\u2581paganel": 8271,
  "\u2581dandy": 8272,
  "\u2581grandson": 8273,
  "\u2581fraser": 8274,
  "\u2581stunt": 8275,
  "\u2581reclin": 8276,
  "\u2581acknowledgment": 8277,
  "\u2581cupful": 8278,
  "ologist": 8279,
  "\u2581wedge": 8280,
  "\u2581crook": 8281,
  "precedent": 8282,
  "\u2581bunk": 8283,
  "\u2581consul": 8284,
  "\u2581historic": 8285,
  "\u2581abolition": 8286,
  "\u2581accomplice": 8287,
  "\u2581acquisition": 8288,
  "\u2581appeas": 8289,
  "\u2581delirium": 8290,
  "\u2581disfigur": 8291,
  "\u2581edifice": 8292,
  "\u2581exasperate": 8293,
  "\u2581hurricane": 8294,
  "\u2581leopold": 8295,
  "\u2581militia": 8296,
  "\u2581misgiving": 8297,
  "\u2581obliterat": 8298,
  "\u2581peddler": 8299,
  "\u2581raffle": 8300,
  "\u2581relinquish": 8301,
  "\u2581savour": 8302,
  "\u2581unsuccessful": 8303,
  "\u2581vagabond": 8304,
  "\u2581wharton": 8305,
  "\u2581glut": 8306,
  "\u2581lizard": 8307,
  "\u2581sidney": 8308,
  "uccio": 8309,
  "\u2581sanctuar": 8310,
  "\u2581scalp": 8311,
  "\u2581envoy": 8312,
  "\u2581magpie": 8313,
  "\u2581linley": 8314,
  "\u2581deacon": 8315,
  "\u2581yarn": 8316,
  "\u2581shod": 8317,
  "\u2581mellow": 8318,
  "\u2581rosamond": 8319,
  "\u2581charitabl": 8320,
  "\u2581hawkins": 8321,
  "\u2581ancestr": 8322,
  "\u2581beatrice": 8323,
  "\u2581dickens": 8324,
  "\u2581hilt": 8325,
  "\u2581tugg": 8326,
  "\u2581huddl": 8327,
  "\u2581estra": 8328,
  "\u2581huck": 8329,
  "\u2581tickl": 8330,
  "\u2581briar": 8331,
  "\u2581tolerate": 8332,
  "\u2581attainment": 8333,
  "\u2581penance": 8334,
  "\u2581mali": 8335,
  "\u2581potter": 8336,
  "\u2581chai": 8337,
  "\u2581surf": 8338,
  "\u2581gallerie": 8339,
  "bade": 8340,
  "stray": 8341,
  "\u2581volcan": 8342,
  "\u2581frolic": 8343,
  "ika": 8344,
  "\u2581slap": 8345,
  "\u2581buoy": 8346,
  "\u2581gesticulat": 8347,
  "\u2581rehears": 8348,
  "\u2581submissive": 8349,
  "\u2581blasphem": 8350,
  "\u2581cerebral": 8351,
  "\u2581minstrel": 8352,
  "\u2581murphy": 8353,
  "\u2581pavilion": 8354,
  "\u2581sophia": 8355,
  "\u2581submerg": 8356,
  "\u2581torpenhow": 8357,
  "\u2581whereabout": 8358,
  "\u2581embass": 8359,
  "\u2581reuben": 8360,
  "\u2581sunbeam": 8361,
  "\u2581billiard": 8362,
  "\u2581quarry": 8363,
  "\u2581councillor": 8364,
  "\u2581craving": 8365,
  "\u2581grappl": 8366,
  "\u2581furtive": 8367,
  "\u2581penrod": 8368,
  "\u2581corral": 8369,
  "\u2581ripp": 8370,
  "\u2581depot": 8371,
  "\u2581orlando": 8372,
  "\u2581blond": 8373,
  "\u2581choir": 8374,
  "\u2581texture": 8375,
  "\u2581trudg": 8376,
  "\u2581cumber": 8377,
  "\u2581parsonage": 8378,
  "\u2581yearning": 8379,
  "\u2581quotation": 8380,
  "\u2581skillful": 8381,
  "\u2581salon": 8382,
  "\u2581turnip": 8383,
  "\u2581contra": 8384,
  "\u2581debat": 8385,
  "\u2581steeple": 8386,
  "\u2581voluntari": 8387,
  "\u2581congratulat": 8388,
  "\u2581prob": 8389,
  "\u2581characterize": 8390,
  "\u2581grizzl": 8391,
  "\u2581semyon": 8392,
  "\u2581affront": 8393,
  "\u2581anniversar": 8394,
  "\u2581arkadyevitch": 8395,
  "\u2581bonaparte": 8396,
  "\u2581decency": 8397,
  "\u2581extravagance": 8398,
  "\u2581gwendolen": 8399,
  "\u2581improbabl": 8400,
  "\u2581infidel": 8401,
  "\u2581ivanovna": 8402,
  "\u2581plausibl": 8403,
  "\u2581qualification": 8404,
  "\u2581ronald": 8405,
  "\u2581servadac": 8406,
  "\u2581shipwreck": 8407,
  "\u2581sidewalk": 8408,
  "\u2581sluggish": 8409,
  "\u2581stumbling": 8410,
  "\u2581thoracic": 8411,
  "\u2581unquestionabl": 8412,
  "\u2581yosemite": 8413,
  "\u2581sawdust": 8414,
  "\u2581anoint": 8415,
  "\u2581kennel": 8416,
  "\u2581slamm": 8417,
  "\u2581humphrey": 8418,
  "\u2581mortar": 8419,
  "\u2581amateur": 8420,
  "\u2581dissent": 8421,
  "\u2581greyhound": 8422,
  "\u2581patriotism": 8423,
  "\u2581focus": 8424,
  "\u2581cement": 8425,
  "\u2581crutch": 8426,
  "\u2581injurious": 8427,
  "\u2581disgraceful": 8428,
  "\u2581solicitor": 8429,
  "\u2581salutation": 8430,
  "\u2581preoccup": 8431,
  "\u2581inhal": 8432,
  "\u2581journalist": 8433,
  "\u2581parade": 8434,
  "\u2581mechanic": 8435,
  "\u2581drap": 8436,
  "\u2581influen": 8437,
  "coat": 8438,
  "\u2581commodit": 8439,
  "\u2581berengaria": 8440,
  "\u2581commonwealth": 8441,
  "\u2581connexion": 8442,
  "\u2581crosbie": 8443,
  "\u2581dublin": 8444,
  "\u2581grigg": 8445,
  "\u2581ignomin": 8446,
  "\u2581lloyd": 8447,
  "\u2581maxwell": 8448,
  "\u2581mulligan": 8449,
  "\u2581paternal": 8450,
  "\u2581pavlovna": 8451,
  "\u2581programme": 8452,
  "\u2581recount": 8453,
  "\u2581sphinx": 8454,
  "\u2581superstitious": 8455,
  "\u2581symphon": 8456,
  "\u2581turmoil": 8457,
  "\u2581unfair": 8458,
  "\u2581authentic": 8459,
  "\u2581efficac": 8460,
  "\u2581mistrust": 8461,
  "\u2581bounderby": 8462,
  "\u2581overhang": 8463,
  "\u2581vertical": 8464,
  "\u2581debray": 8465,
  "\u2581damasc": 8466,
  "\u2581perkins": 8467,
  "\u2581cleav": 8468,
  "\u2581hampton": 8469,
  "\u2581sandwich": 8470,
  "\u2581biograph": 8471,
  "\u2581brigade": 8472,
  "\u2581solace": 8473,
  "\u2581infus": 8474,
  "\u2581harmonious": 8475,
  "\u2581gaiet": 8476,
  "\u2581agricultural": 8477,
  "\u2581grabb": 8478,
  "\u2581hugg": 8479,
  "\u2581reformation": 8480,
  "\u2581patriotic": 8481,
  "\u2581pathway": 8482,
  "\u2581prone": 8483,
  "\u2581affectation": 8484,
  "\u2581statu": 8485,
  "\u2581numb": 8486,
  "\u2581bustl": 8487,
  "breast": 8488,
  "\u2581formalit": 8489,
  "\u2581accompaniment": 8490,
  "\u2581apprehensive": 8491,
  "\u2581armchair": 8492,
  "\u2581cavalcanti": 8493,
  "\u2581dialect": 8494,
  "\u2581discomfit": 8495,
  "\u2581drench": 8496,
  "\u2581glug": 8497,
  "\u2581immeasurabl": 8498,
  "\u2581languish": 8499,
  "\u2581philanthrop": 8500,
  "\u2581reflex": 8501,
  "\u2581shahrazad": 8502,
  "\u2581tribunal": 8503,
  "\u2581unspeakabl": 8504,
  "\u2581bristol": 8505,
  "\u2581campbell": 8506,
  "\u2581extort": 8507,
  "\u2581saunter": 8508,
  "\u2581emblem": 8509,
  "\u2581woozy": 8510,
  "\u2581inclos": 8511,
  "\u2581wield": 8512,
  "\u2581parasol": 8513,
  "\u2581patricia": 8514,
  "\u2581golf": 8515,
  "\u2581zeus": 8516,
  "\u2581boucher": 8517,
  "\u2581eliminat": 8518,
  "\u2581scald": 8519,
  "\u2581taint": 8520,
  "\u2581treatise": 8521,
  "\u2581trough": 8522,
  "\u2581cashier": 8523,
  "\u2581untouch": 8524,
  "\u2581historie": 8525,
  "\u2581psychological": 8526,
  "\u2581nanny": 8527,
  "\u2581sixpence": 8528,
  "\u2581disdainful": 8529,
  "\u2581slacken": 8530,
  "\u2581detachment": 8531,
  "\u2581slapp": 8532,
  "\u2581prohibition": 8533,
  "\u2581becky": 8534,
  "\u2581andersen": 8535,
  "\u2581beverly": 8536,
  "\u2581lair": 8537,
  "\u2581vermi": 8538,
  "\u2581genev": 8539,
  "\u2581batterie": 8540,
  "\u2581trinit": 8541,
  "dyke": 8542,
  "\u2581emphatic": 8543,
  "\u2581infirmit": 8544,
  "\u2581mash": 8545,
  "\u2581fatigu": 8546,
  "shore": 8547,
  "\u2581raki": 8548,
  "powder": 8549,
  "\u2581fyodor": 8550,
  "\u2581animosit": 8551,
  "\u2581captivat": 8552,
  "\u2581clipp": 8553,
  "\u2581fastidious": 8554,
  "\u2581implacabl": 8555,
  "\u2581incomparabl": 8556,
  "\u2581interchange": 8557,
  "\u2581invincible": 8558,
  "\u2581nathaniel": 8559,
  "\u2581raskolnikov": 8560,
  "\u2581relentless": 8561,
  "\u2581resurrection": 8562,
  "\u2581smelt": 8563,
  "\u2581transition": 8564,
  "\u2581chiltern": 8565,
  "\u2581jefferson": 8566,
  "\u2581mislead": 8567,
  "\u2581preface": 8568,
  "\u2581recreation": 8569,
  "\u2581varnish": 8570,
  "\u2581wilcox": 8571,
  "\u2581intrust": 8572,
  "\u2581stack": 8573,
  "\u2581tremor": 8574,
  "\u2581gopher": 8575,
  "\u2581hovel": 8576,
  "\u2581sierra": 8577,
  "\u2581psalm": 8578,
  "\u2581ordeal": 8579,
  "\u2581deduc": 8580,
[...]
